{"[pad]": 0, "[cls]": 1, "[sep]": 2, "<unk>": 3, "\u10d3": 4, "t": 5, "\u30c8": 6, "\u1ec5": 7, "\u10ea": 8, ":": 9, "\u30a2": 10, "\u0647": 11, "\u094d": 12, "2": 13, "L": 14, "\u30c3": 15, "\u6226": 16, "\u015f": 17, "\u3009": 18, "\u00f2": 19, "y": 20, "\u00e3": 21, "\u043e": 22, "\u1ea3": 23, "7": 24, "\u1e25": 25, "\u012b": 26, "\u653b": 27, "\u0303": 28, "(": 29, "\u1e43": 30, "%": 31, "\u1e45": 32, "\u6a5f": 33, "\u266d": 34, "8": 35, "u": 36, "@": 37, "\u0e21": 38, "\u2044": 39, "\u2153": 40, "\u10d8": 41, "\u0435": 42, "0": 43, "\u00e9": 44, "=": 45, "\u062d": 46, "F": 47, "V": 48, "\u7a7a": 49, "\u00ed": 50, "\u0e07": 51, "v": 52, "\u0e01": 53, "\u2013": 54, "\u2609": 55, "A": 56, "\u016b": 57, "\u014c": 58, ")": 59, "&": 60, "\u03b2": 61, "\u792e": 62, "s": 63, "d": 64, "\u0e25": 65, "\u00fb": 66, "\u10e0": 67, "\u0101": 68, "\u30fb": 69, "x": 70, "\u3008": 71, "c": 72, ",": 73, "T": 74, "p": 75, "\u0e34": 76, "\u00c9": 77, "[": 78, "\u1ea5": 79, "m": 80, "\u20ac": 81, "\u0e32": 82, "\u1edb": 83, "\u00a7": 84, "\u043a": 85, "Q": 86, "\u00f4": 87, "B": 88, ";": 89, "l": 90, "\u1ef3": 91, "\u03b3": 92, "\u1ecb": 93, "\\": 94, "\u10d2": 95, "X": 96, "\u00a5": 97, "\u0644": 98, "\u30eb": 99, "\u00e0": 100, "\u015b": 101, "\u2212": 102, "\u044f": 103, "i": 104, "r": 105, "\u201d": 106, "\u2192": 107, "\u30d7": 108, "\u10fb": 109, "\u6bbb": 110, "\u00b1": 111, "\u2018": 112, "O": 113, "4": 114, "\u20a4": 115, "\u0100": 116, "\u00bd": 117, "\u00d8": 118, "\u00f6": 119, "\u0144": 120, "\u017b": 121, "\u0627": 122, "\u1ec7": 123, "<": 124, "\u00cd": 125, "\u0107": 126, "\u20b9": 127, "\u0141": 128, "\u0e13": 129, "\u00f3": 130, "\u00ea": 131, "\u0e22": 132, "\u1e63": 133, "*": 134, "|": 135, "\uff5e": 136, "g": 137, "\u00c6": 138, "!": 139, ".": 140, "\u266f": 141, "\u00ce": 142, "\u00f8": 143, "\u30ea": 144, "D": 145, "\u5834": 146, "'": 147, "6": 148, "\u1e6f": 149, "\u00c5": 150, "\u2020": 151, "\u0110": 152, "\u00d6": 153, "\u30b9": 154, "\u01b0": 155, "\u10ec": 156, "U": 157, "\u0e15": 158, "k": 159, "\u10e1": 160, "M": 161, "\u00fc": 162, "\u2154": 163, "\u00a1": 164, "$": 165, "\u30e5": 166, "P": 167, "\u0635": 168, "\u0e48": 169, "n": 170, "q": 171, "\u2014": 172, "~": 173, "\u0111": 174, "\u00b7": 175, "\u0e31": 176, "C": 177, "h": 178, "#": 179, "\u00eb": 180, "\u0117": 181, "\ufeff": 182, "\u0103": 183, "\u03bc": 184, "\u010d": 185, "\u0432": 186, "\u00d7": 187, "\u00ee": 188, "R": 189, "\u10d6": 190, "\u00e4": 191, "\u02bf": 192, "\u706b": 193, "\u10d9": 194, "I": 195, "\u0646": 196, "\u10eb": 197, "\u00e7": 198, "1": 199, "\u10e3": 200, "\u0142": 201, "Z": 202, "\u1e6d": 203, "\u2026": 204, "\u00b5": 205, "\u00e8": 206, "3": 207, "\u0e23": 208, "\u00dc": 209, "\u00b2": 210, "]": 211, "?": 212, "\u03ba": 213, "\u0442": 214, "J": 215, "S": 216, "H": 217, "\u2032": 218, "`": 219, "W": 220, "\u2019": 221, "+": 222, "\u00b3": 223, "\u0e4c": 224, "\u02bb": 225, "\u00b0": 226, "\u00fa": 227, "\u00c1": 228, "o": 229, "K": 230, "\u00ec": 231, "\u30f4": 232, "\u0421": 233, ">": 234, "-": 235, "\u00e1": 236, "\u00de": 237, "\u10ee": 238, "\u01a1": 239, "\u1eed": 240, "5": 241, "\u2033": 242, "f": 243, " ": 244, "\u306e": 245, "Y": 246, "\u0173": 247, "\u1ea7": 248, "\u0441": 249, "\u10ef": 250, "\u30a1": 251, "z": 252, "\u30ad": 253, "\u5927": 254, "G": 255, "9": 256, "\u201c": 257, "\u0161": 258, "/": 259, "N": 260, "\u00a3": 261, "\u52d5": 262, "\u00e5": 263, "\u968a": 264, "E": 265, "b": 266, "\u1eaf": 267, "w": 268, "\u017e": 269, "\u03b1": 270, "j": 271, "\u2011": 272, "\u201e": 273, "\u10dd": 274, "\u10d5": 275, "^": 276, "a": 277, "\u00f1": 278, "\"": 279, "\u0430": 280, "\u014d": 281, "\u00e2": 282, "\u00da": 283, "e": 284, "\u2264": 285, "_": 286, "\u6226\u5834": 287, "\u6226\u5834\u306e": 288, "\u6226\u5834\u306e\u30f4": 289, "\u6226\u5834\u306e\u30f4\u30a1": 290, "\u6226\u5834\u306e\u30f4\u30a1\u30eb": 291, "\u6226\u5834\u306e\u30f4\u30a1\u30eb\u30ad": 292, "\u6226\u5834\u306e\u30f4\u30a1\u30eb\u30ad\u30e5": 293, "\u6226\u5834\u306e\u30f4\u30a1\u30eb\u30ad\u30e5\u30ea": 294, "\u6226\u5834\u306e\u30f4\u30a1\u30eb\u30ad\u30e5\u30ea\u30a2": 295, "\u0e01\u0e31": 296, "\u0e01\u0e31\u0e25": 297, "\u0e01\u0e31\u0e25\u0e22": 298, "\u0e01\u0e31\u0e25\u0e22\u0e32": 299, "\u0e01\u0e31\u0e25\u0e22\u0e32\u0e13": 300, "\u0e01\u0e31\u0e25\u0e22\u0e32\u0e13\u0e21": 301, "\u0e01\u0e31\u0e25\u0e22\u0e32\u0e13\u0e21\u0e34": 302, "\u0e01\u0e31\u0e25\u0e22\u0e32\u0e13\u0e21\u0e34\u0e15": 303, "\u0e01\u0e31\u0e25\u0e22\u0e32\u0e13\u0e21\u0e34\u0e15\u0e23": 304, "\u30b9\u30c8": 305, "\u30b9\u30c8\u30c3": 306, "\u30b9\u30c8\u30c3\u30d7": 307, "\u653b\u6bbb": 308, "\u653b\u6bbb\u6a5f": 309, "\u653b\u6bbb\u6a5f\u52d5": 310, "\u653b\u6bbb\u6a5f\u52d5\u968a": 311, "\u0421\u043e": 312, "\u0421\u043e\u0432": 313, "\u0421\u043e\u0432\u0435": 314, "\u0421\u043e\u0432\u0435\u0442": 315, "\u0421\u043e\u0432\u0435\u0442\u0441": 316, "\u0421\u043e\u0432\u0435\u0442\u0441\u043a": 317, "\u0421\u043e\u0432\u0435\u0442\u0441\u043a\u0430": 318, "\u0421\u043e\u0432\u0435\u0442\u0441\u043a\u0430\u044f": 319, "\u062d\u0635": 320, "\u062d\u0635\u0646": 321, "\u706b\u792e": 322, "\u5927\u7a7a": 323, "\u0627\u0644": 324, "\u0627\u0644\u0644": 325, "\u0627\u0644\u0644\u0647": 326, "\u1e6d\u1e6d": 327, "\u01b0\u1edb": 328, "\u0110\u00ec": 329, "\u01b0\u01a1": 330, "\u00de\u00f3": 331, "\u00e1\u010d": 332, "\u00f1\u0101": 333, "V\u0103": 334, "\u00e1\u0161": 335, "K\u1ef3": 336, "j\u00f1\u0101": 337, "\u014cz": 338, "K\u014d": 339, "\u6226\u5834\u306e\u30f4\u30a1\u30eb\u30ad\u30e5\u30ea\u30a23": 340, "N\u02bf": 341, "R\u1ecb": 342, "B\u00ec": 343, "NN\u02bf": 344, "\u03baB": 345, "XX": 346, "L\u00fc": 347, "R\u00e4": 348, "H\u01b0\u01a1": 349, "\u016bj": 350, "K\u00f6": 351, "QNN\u02bf": 352, "XXX": 353, "XXV": 354, "LXXV": 355, "D\u01b0\u01a1": 356, "LXXVI": 357, "j\u014d": 358, "S\u1eed": 359, "`A": 360, "TQNN\u02bf": 361, "MTQNN\u02bf": 362, "T\u1ea5": 363, "\u014dj": 364, "W\u0142": 365, "N\u00ee": 366, "B\u00e0": 367, "2\u03b3": 368, "k\u1e63": 369, "@-": 370, "--": 371, "@-@": 372, "L\u00ea": 373, "19": 374, "\u00f1j": 375, "k\u00f6": 376, "20": 377, "\u00e2v": 378, "199": 379, "200": 380, "kk\u00f6": 381, "N\u00f6": 382, "201": 383, "j\u00f6": 384, "2009": 385, "Bj\u00f6": 386, "F\u00f6": 387, "1999": 388, "2007": 389, "'\u00ea": 390, "18": 391, "2008": 392, "189": 393, "M\u00ea": 394, "198": 395, "2006": 396, "1998": 397, "1989": 398, "1988": 399, "188": 400, "2004": 401, "1899": 402, "197": 403, "1889": 404, "1898": 405, "2005": 406, "1888": 407, "2003": 408, "196": 409, "194": 410, "1969": 411, "1968": 412, "1920": 413, "1986": 414, "1987": 415, "195": 416, "1964": 417, "193": 418, "1984": 419, "1958": 420, "1967": 421, "1939": 422, "1985": 423, "1980": 424, "1938": 425, "1959": 426, "1966": 427, "1983": 428, "1982": 429, "1981": 430, "1960": 431, "1936": 432, "1965": 433, "1963": 434, "1962": 435, "1961": 436, "1937": 437, "1978": 438, "1979": 439, "1930": 440, "1897": 441, "1935": 442, "1934": 443, "1933": 444, "1932": 445, "1931": 446, "1997": 447, "1948": 448, "1947": 449, "1996": 450, "1995": 451, "1949": 452, "1994": 453, "1993": 454, "1944": 455, "1990": 456, "1992": 457, "1991": 458, "1946": 459, "1895": 460, "2002": 461, "2013": 462, "187": 463, "1878": 464, "1879": 465, "1877": 466, "1874": 467, "1876": 468, "1894": 469, "1896": 470, "1890": 471, "1893": 472, "1892": 473, "1891": 474, "1870": 475, "1873": 476, "1189": 477, "1872": 478, "1875": 479, "1871": 480, "1187": 481, "2001": 482, "18-": 483, "2000": 484, "186": 485, "185": 486, "1956": 487, "1859": 488, "1918": 489, "1858": 490, "1857": 491, "184": 492, "1849": 493, "1848": 494, "1847": 495, "1856": 496, "183": 497, "1838": 498, "1854": 499, "1839": 500, "1837": 501, "1836": 502, "1844": 503, "1850": 504, "1853": 505, "1855": 506, "1852": 507, "1851": 508, "1840": 509, "1846": 510, "1845": 511, "1842": 512, "1843": 513, "1841": 514, "1834": 515, "1830": 516, "1832": 517, "1833": 518, "1835": 519, "1831": 520, "2014": 521, "2015": 522, "2012": 523, "2010": 524, "2016": 525, "2011": 526, "00": 527, "1954": 528, "1945": 529, "2017": 530, "000": 531, "1940": 532, "1950": 533, "1970": 534, "1880": 535, "1943": 536, "1942": 537, "1860": 538, "1957": 539, "1941": 540, "1953": 541, "1955": 542, "1952": 543, "1951": 544, "1974": 545, "190": 546, "1909": 547, "1908": 548, "1976": 549, "1977": 550, "1975": 551, "1973": 552, "1972": 553, "1907": 554, "1971": 555, "1905": 556, "1906": 557, "1904": 558, "1903": 559, "1902": 560, "1901": 561, "192": 562, "1869": 563, "1886": 564, "1929": 565, "1919": 566, "1928": 567, "191": 568, "1819": 569, "1927": 570, "1926": 571, "1924": 572, "1925": 573, "1923": 574, "1922": 575, "1921": 576, "1917": 577, "1916": 578, "1914": 579, "1913": 580, "1915": 581, "1910": 582, "1912": 583, "1911": 584, "1885": 585, "5191": 586, "1884": 587, "1191": 588, "1887": 589, "1883": 590, "1882": 591, "1881": 592, "500": 593, "100": 594, "1865": 595, "400": 596, "1800": 597, "800": 598, "300": 599, "600": 600, "700": 601, "900": 602, "1866": 603, "1868": 604, "1867": 605, "1863": 606, "1861": 607, "1864": 608, "1862": 609, "180": 610, "1808": 611, "1809": 612, "30": 613, "1820": 614, "50": 615, "10": 616, "0600": 617, "40": 618, "60": 619, "80": 620, "90": 621, "70": 622, "17": 623, "1790": 624, "1770": 625, "1708": 626, "179": 627, "16": 628, "1794": 629, "1660": 630, "1609": 631, "1795": 632, "1797": 633, "1798": 634, "1796": 635, "1793": 636, "1792": 637, "1791": 638, "177": 639, "1806": 640, "1776": 641, "1777": 642, "1775": 643, "176": 644, "1769": 645, "1766": 646, "1778": 647, "1767": 648, "1764": 649, "1761": 650, "1768": 651, "1765": 652, "1763": 653, "1774": 654, "1772": 655, "1779": 656, "1773": 657, "1771": 658, "1706": 659, "1170": 660, "360": 661, "1605": 662, "178": 663, "1789": 664, "1787": 665, "1788": 666, "1783": 667, "1784": 668, "1786": 669, "1782": 670, "1785": 671, "1604": 672, "1701": 673, "175": 674, "1759": 675, "1758": 676, "1756": 677, "1817": 678, "1753": 679, "1804": 680, "1801": 681, "1754": 682, "1803": 683, "1757": 684, "150": 685, "1818": 686, "1805": 687, "15": 688, "070": 689, "1703": 690, "28": 691, "1828": 692, "1755": 693, "38": 694, "1608": 695, "08": 696, "25": 697, "14": 698, "1208": 699, "1825": 700, "1108": 701, "1086": 702, "164": 703, "1648": 704, "1646": 705, "1649": 706, "1647": 707, "1643": 708, "1644": 709, "1645": 710, "1650": 711, "480": 712, "168": 713, "1689": 714, "1688": 715, "1686": 716, "1685": 717, "1684": 718, "1681": 719, "1683": 720, "1682": 721, "48": 722, "1628": 723, "1489": 724, "1748": 725, "448": 726, "26": 727, "88": 728, "75": 729, "1826": 730, "1260": 731, "27": 732, "1270": 733, "1827": 734, "78": 735, "878": 736, "978": 737, "76": 738, "766": 739, "767": 740, "1676": 741, "787": 742, "789": 743, "1807": 744, "07": 745, "29": 746, "1207": 747, "29X": 748, "129X": 749, "1829": 750, "1107": 751, "077": 752, "1072": 753, "1629": 754, "12": 755, "1268": 756, "1279": 757, "1127": 758, "1126": 759, "1265": 760, "1264": 761, "1129": 762, "1271": 763, "1206": 764, "1128": 765, "1281": 766, "1125": 767, "1642": 768, "1164": 769, "1641": 770, "24": 771, "1824": 772, "1124": 773, "1224": 774, "1802": 775, "47": 776, "13": 777, "1390": 778, "1138": 779, "1747": 780, "1751": 781, "13400": 782, "11": 783, "77": 784, "5240": 785, "1813": 786, "1166": 787, "1154": 788, "1161": 789, "1137": 790, "1123": 791, "1155": 792, "1142": 793, "1165": 794, "1135": 795, "1121": 796, "1677": 797, "1139": 798, "1132": 799, "1136": 800, "1133": 801, "1131": 802, "1122": 803, "1145": 804, "1811": 805, "21": 806, "977": 807, "1603": 808, "45": 809, "690": 810, "1821": 811, "1345": 812, "1221": 813, "261": 814, "23": 815, "1234": 816, "1237": 817, "1233": 818, "1235": 819, "1231": 820, "1823": 821, "22": 822, "1229": 823, "370": 824, "1822": 825, "1402": 826, "37": 827, "1738": 828, "737": 829, "1637": 830, "457": 831, "790": 832, "79": 833, "1679": 834, "87": 835, "1812": 836, "874": 837, "679": 838, "98": 839, "1816": 840, "799": 841, "979": 842, "794": 843, "49": 844, "1549": 845, "97": 846, "1622": 847, "986": 848, "1697": 849, "697": 850, "972": 851, "971": 852, "973": 853, "39": 854, "57": 855, "1639": 856, "1573": 857, "99": 858, "999": 859, "1099": 860, "995": 861, "996": 862, "09": 863, "1096": 864, "1095": 865, "89": 866, "895": 867, "96": 868, "991": 869, "1596": 870, "699": 871, "696": 872, "957": 873, "968": 874, "169": 875, "67": 876, "1567": 877, "1667": 878, "1674": 879, "1692": 880, "1672": 881, "1694": 882, "1691": 883, "1693": 884, "667": 885, "467": 886, "1625": 887, "35": 888, "135X": 889, "1351": 890, "1435": 891, "358": 892, "355": 893, "31": 894, "1631": 895, "1331": 896, "36": 897, "368": 898, "1336": 899, "1736": 900, "166": 901, "95": 902, "1669": 903, "1664": 904, "1662": 905, "1666": 906, "1665": 907, "1663": 908, "1661": 909, "94": 910, "59": 911, "35928": 912, "935928": 913, "1593": 914, "1592": 915, "1059": 916, "593": 917, "69": 918, "85": 919, "1438": 920, "4160": 921, "881": 922, "1102": 923, "1545": 924, "2854": 925, "1569": 926, "A4160": 927, "691": 928, "938": 929, "1105": 930, "68": 931, "568": 932, "65": 933, "468": 934, "1653": 935, "1656": 936, "1651": 937, "1652": 938, "1065": 939, "684": 940, "1616": 941, "865": 942, "550": 943, "588": 944, "366": 945, "660": 946, "155": 947, "731": 948, "1558": 949, "1553": 950, "1554": 951, "1555": 952, "1552": 953, "06": 954, "1624": 955, "1064": 956, "1063": 957, "56": 958, "1563": 959, "056": 960, "64": 961, "864": 962, "66": 963, "46": 964, "1546": 965, "746": 966, "86": 967, "44": 968, "1744": 969, "1544": 970, "1044": 971, "462": 972, "74": 973, "05": 974, "2055": 975, "1743": 976, "1741": 977, "1742": 978, "1054": 979, "1052": 980, "55": 981, "555": 982, "72": 983, "1714": 984, "54": 985, "682": 986, "71": 987, "1542": 988, "154E": 989, "42": 990, "58": 991, "4232": 992, "A4232": 993, "84": 994, "835": 995, "81": 996, "34": 997, "692": 998, "738": 999, "1534": 1000, "1204": 1001, "463": 1002, "1638": 1003, "1101": 1004, "51": 1005, "53": 1006, "61": 1007, "853D": 1008, "1532": 1009, "153E": 1010, "533": 1011, "52": 1012, "1623": 1013, "743": 1014, "62": 1015, "41": 1016, "04": 1017, "43": 1018, "33": 1019, "47338": 1020, "133X": 1021, "1633": 1022, "883": 1023, "32": 1024, "733": 1025, "1632": 1026, "93": 1027, "983": 1028, "032": 1029, "1103": 1030, "73": 1031, "63": 1032, "82": 1033, "151E": 1034, "03": 1035, "483": 1036, "83": 1037, "2501": 1038, "02": 1039, "592": 1040, "333": 1041, "91": 1042, "92": 1043, "910L": 1044, "152E": 1045, "101": 1046, "1115": 1047, "M1822": 1048, "01": 1049, "111": 1050, "U\u00ed": 1051, "T\u00e5": 1052, "129I": 1053, "J\u00fc": 1054, "`Ab": 1055, "j\u00f8": 1056, "v\u012b": 1057, "\u0101v\u012b": 1058, "Bj\u00f8": 1059, "v\u00e5": 1060, "D\u00fc": 1061, "M\u00fc": 1062, "G\u00fc": 1063, "M\u00e1": 1064, "D\u00ed": 1065, "y\u1ec5": 1066, "B\u00fc": 1067, "y\u016bj": 1068, "R\u00e9": 1069, "A320": 1070, "NY": 1071, "T\u00fa": 1072, "ZX": 1073, "UK": 1074, "222": 1075, "Ry\u016bj": 1076, "XV": 1077, "H\u00e4": 1078, "104A": 1079, "\u1e45g": 1080, "\u1e45g\u012b": 1081, "XVI": 1082, "XI": 1083, "zz": 1084, "j\u00e1": 1085, "y\u016b": 1086, "k\u0101": 1087, "US": 1088, "\u0111m": 1089, "k\u0101k\u0101": 1090, "XII": 1091, "Ry\u016b": 1092, "XIV": 1093, "XIII": 1094, "k\u0101k\u0101p": 1095, "USD": 1096, "v\u0101": 1097, "U2": 1098, "\u03bcm": 1099, "k\u0101k\u0101p\u014d": 1100, "M\u0101": 1101, "H\u00e4m": 1102, "\u00cdm": 1103, "m\u00e1\u0161": 1104, "N\u00eem": 1105, "m\u0117": 1106, "m\u016b": 1107, "R\u00f8": 1108, "u\u0111m": 1109, "Tu\u0111m": 1110, "uy\u1ec5": 1111, "guy\u1ec5": 1112, "u\u1ea3": 1113, "Qu\u1ea3": 1114, "Nguy\u1ec5": 1115, "S\u1eedu": 1116, "151Eu": 1117, "153Eu": 1118, "152Eu": 1119, "154Eu": 1120, "qu": 1121, "f\u00fc": 1122, "USA": 1123, "\u00b5m": 1124, "\u0161k": 1125, "g\u00f6": 1126, "194F": 1127, "T\u00f8": 1128, "\u01b0\u1edbc": 1129, "qq": 1130, "\u00b5g": 1131, "\u00fcm": 1132, "USAC": 1133, "\u1eafc": 1134, "\u00fcmq": 1135, "USACE": 1136, "\u0100c": 1137, "R\u00e9u": 1138, "194A": 1139, "\u0100c\u0101": 1140, "A48": 1141, "3D": 1142, "3DS": 1143, "y\u0101": 1144, "3X": 1145, "W3X": 1146, "W3XW": 1147, "Sy\u0101": 1148, "W3XWT": 1149, "S\u00e3": 1150, "Qu": 1151, "M\u00fcg": 1152, "\u00edv": 1153, "Q3": 1154, "M\u00fcgg": 1155, "QF": 1156, "qu\u00ed": 1157, "QH": 1158, "u\u017e": 1159, "@.": 1160, "@.@": 1161, "AQH": 1162, "AQHA": 1163, "@,": 1164, "@,@": 1165, "\u00cel": 1166, "\u00dal": 1167, "B\u00fcl": 1168, "\u00c5l": 1169, "\u00c1l": 1170, "\u00c1lv": 1171, "v\u00e5l": 1172, "lu\u017e": 1173, "Plu\u017e": 1174, "\u00fbl": 1175, "\u00fbl\u00e9": 1176, "l\u00edv": 1177, "M\u00eal": 1178, "M\u00eal\u00e9": 1179, "N\u00f6l": 1180, "`Abd": 1181, "`Abdu": 1182, "d\u017e": 1183, "Od\u017e": 1184, "Sy\u0101d": 1185, "Sy\u0101dv\u0101": 1186, "N\u00f6ld": 1187, "D\u00e1": 1188, "NZ": 1189, "K\u00f6p": 1190, "ANZ": 1191, "NZE": 1192, "ANZA": 1193, "K\u00f6pp": 1194, "Sy\u0101dv\u0101d": 1195, "NZEF": 1196, "ANZAC": 1197, "v\u0101d": 1198, "HQ": 1199, "II": 1200, "Ex": 1201, "R\u00e9p": 1202, "USS": 1203, "USDA": 1204, "\u1ec7m": 1205, "GHQ": 1206, "v\u0101k": 1207, "VII": 1208, "III": 1209, "LVII": 1210, "R\u00e9pu": 1211, "XLVII": 1212, "R\u00e9pub": 1213, "\u1ec7u": 1214, "USSR": 1215, "Exp": 1216, "194C": 1217, "G\u00e1": 1218, "G\u00e1l": 1219, "G\u00e1lv": 1220, "R\u00e9publ": 1221, "L\u00e1": 1222, "L\u00e1g": 1223, "z\u00e1": 1224, "h\u01b0\u1edbc": 1225, "Ph\u01b0\u1edbc": 1226, "z\u00e1l": 1227, "h\u1eafc": 1228, "Kh\u1eafc": 1229, "h\u014dj": 1230, "h\u0101v\u012b": 1231, "\u1e6d\u1e6dh": 1232, "IX": 1233, "y\u0101d": 1234, "TV": 1235, "F\u00e9": 1236, "R\u00e9g": 1237, "K\u014dk": 1238, "y\u0101dv\u0101d": 1239, "MTV": 1240, "4TV": 1241, "G4TV": 1242, "ITV": 1243, "DTV": 1244, "SMTV": 1245, "WDTV": 1246, "NDTV": 1247, "DV": 1248, "DVD": 1249, "V\u00e9": 1250, "Dj": 1251, "uzz": 1252, "F\u00e9l": 1253, "v\u00e4": 1254, "\u0144s": 1255, "\u0144sk": 1256, "puzz": 1257, "Puzz": 1258, "puzzl": 1259, "F\u00e9d": 1260, "Ozz": 1261, "\u00d6s": 1262, "F\u00e9d\u00e9": 1263, "Ozzy": 1264, "Puzzl": 1265, "muzz": 1266, "R\u00e9s": 1267, "muzzl": 1268, "sv\u00e4": 1269, "\u00eas": 1270, "T\u00e5s": 1271, "sm\u0117": 1272, "m\u016bs": 1273, "m\u016bs\u0173": 1274, "sh\u014dj": 1275, "sy\u0101dv\u0101d": 1276, "\u1e43s": 1277, "\u1e43s\u0101": 1278, "sy\u0101": 1279, "D\u00fcs": 1280, "VN": 1281, "89A": 1282, "\u1e6fr": 1283, "RVN": 1284, "ARVN": 1285, "AVN": 1286, "PAVN": 1287, "SVN": 1288, "D\u00fcss": 1289, "F\u00f6r": 1290, "OSVN": 1291, "F\u00f6rs": 1292, "f\u00fcr": 1293, "COSVN": 1294, "\u00dcr": 1295, "\u00dcr\u00fcmq": 1296, "sv\u00e4r": 1297, "sv\u00e4rd": 1298, "rj\u00e1": 1299, "F\u00e9d\u00e9r": 1300, "ry\u016b": 1301, "ury\u016b": 1302, "V\u00e9r": 1303, "kury\u016b": 1304, "J\u00fcr": 1305, "J\u00fcrg": 1306, "R\u00f8r": 1307, "Bj\u00f8r": 1308, "\u00de\u00f3r": 1309, "\u00de\u00f3rf": 1310, "L\u00e1gr": 1311, "Bj\u00f6r": 1312, "r\u00eas": 1313, "r\u1ea7": 1314, "Tr\u1ea7": 1315, "r\u00fbl\u00e9": 1316, "Br\u00fbl\u00e9": 1317, "r\u00f6": 1318, "hr\u00f6": 1319, "1303r": 1320, "chr\u00f6": 1321, "1303rd": 1322, "h\u0101v\u012br": 1323, "Schr\u00f6": 1324, "\u0100c\u0101r": 1325, "\u0100c\u0101ry": 1326, "r\u01b0\u01a1": 1327, "Tr\u01b0\u01a1": 1328, "M\u00e1r": 1329, "M\u00e1rqu": 1330, "rg\u00f6": 1331, "UN": 1332, "D\u00e1l": 1333, "g\u00f4": 1334, "Ng\u00f4": 1335, "UNE": 1336, "UNES": 1337, "UNO": 1338, "UNESC": 1339, "UNOS": 1340, "UNI": 1341, "l\u0101": 1342, "UNESCO": 1343, "UNOSO": 1344, "UNIC": 1345, "ll\u0101": 1346, "UNICE": 1347, "UNOSOM": 1348, "All\u0101": 1349, "UNICEF": 1350, "All\u0101h": 1351, "ll\u0101h": 1352, "\u0101v": 1353, "\u00c6l": 1354, "'\u00ed": 1355, "K\u014ds": 1356, "L\u00f3": 1357, "L\u00f3p": 1358, "\u00c6lf": 1359, "h\u0101v": 1360, "bh\u0101v": 1361, "\u00c6lfr": 1362, "Th": 1363, "T30": 1364, "h\u00f4": 1365, "Rh\u00f4": 1366, "\u00f4m": 1367, "r\u00f4m": 1368, "UT": 1369, "USAI": 1370, "FX": 1371, "i\u010d": 1372, "\u00e9r\u00f4m": 1373, "XFX": 1374, "VFX": 1375, "J\u00e9r\u00f4m": 1376, "USAID": 1377, "UTC": 1378, "vi\u010d": 1379, "ivi\u010d": 1380, "rivi\u010d": 1381, "Grivi\u010d": 1382, "Grivi\u010di": 1383, "Grivi\u010di\u0107": 1384, "\u0144ski": 1385, "F\u00e9li": 1386, "F\u00e9lix": 1387, "\u00dcr\u00fcmqi": 1388, "uzzi": 1389, "R\u00e9publi": 1390, "R\u00e9public": 1391, "D\u00e1i": 1392, "D\u00e1il": 1393, "R\u00e9gi": 1394, "R\u00e9gim": 1395, "\u00de\u00f3rfi": 1396, "L\u00e1gri": 1397, "L\u00e1grim": 1398, "i\u015b": 1399, "Wi\u015b": 1400, "R\u00e4i": 1401, "R\u00e4ikk\u00f6": 1402, "i\u1ec7m": 1403, "Di\u1ec7m": 1404, "Plu\u017ei": 1405, "i\u1ec7u": 1406, "Thi\u1ec7u": 1407, "ill\u0101h": 1408, "mill\u0101h": 1409, "ish\u014dj": 1410, "bish\u014dj": 1411, "smill\u0101h": 1412, "Ry\u016bji": 1413, "ismill\u0101h": 1414, "bismill\u0101h": 1415, "\u00c6lfri": 1416, "\u00c6lfric": 1417, "i\u1e43s\u0101": 1418, "hi\u1e43s\u0101": 1419, "iv\u0101k": 1420, "R\u00e9so": 1421, "Div\u0101k": 1422, "R\u00e9sol": 1423, "o\u00ee": 1424, "R\u00e9solu": 1425, "orj\u00e1": 1426, "dorj\u00e1": 1427, "o\u00eb": 1428, "Zo\u00eb": 1429, "No\u00eb": 1430, "Adorj\u00e1": 1431, "No\u00ebl": 1432, "M\u0101o": 1433, "M\u0101or": 1434, "o\u00e2v": 1435, "Go\u00e2v": 1436, "M\u0101ori": 1437, "\u014czo": 1438, "\u014czor": 1439, "okury\u016b": 1440, "Kokury\u016b": 1441, "S\u00e3o": 1442, "V\u00e9ro": 1443, "B\u00fclo": 1444, "B\u00fclow": 1445, "R\u00f8ro": 1446, "R\u00f8ros": 1447, "om\u00e1\u0161": 1448, "Tom\u00e1\u0161": 1449, "bish\u014djo": 1450, "ol\u00edv": 1451, "Azz": 1452, "nj\u014d": 1453, "Bol\u00edv": 1454, "n\u1e6fr": 1455, "nz\u00e1l": 1456, "onz\u00e1l": 1457, "qu\u00edn": 1458, "Gonz\u00e1l": 1459, "K\u00f6n": 1460, "K\u00f6ni": 1461, "nsv\u00e4rd": 1462, "K\u00f6nig": 1463, "no\u00ee": 1464, "Adorj\u00e1n": 1465, "\u00e1\u010dn": 1466, "\u00e1\u010dni": 1467, "G\u00fcn": 1468, "\u00e1\u010dnik": 1469, "R\u00e9un": 1470, "R\u00e9uni": 1471, "V\u00e9ron": 1472, "R\u00e9unio": 1473, "T\u00f8n": 1474, "T\u00f8ns": 1475, "R\u00e9union": 1476, "T\u00f8nsb": 1477, "Bj\u00f8rn": 1478, "\u00de\u00f3rfin": 1479, "\u00de\u00f3rfinn": 1480, "\u00de\u00f3rfinnr": 1481, "Bj\u00f6rn": 1482, "Wi\u015bn": 1483, "Wi\u015bni": 1484, "R\u00e4ikk\u00f6n": 1485, "Wi\u015bnio": 1486, "Rh\u00f4n": 1487, "Wi\u015bniow": 1488, "B\u00ecn": 1489, "B\u00ecnh": 1490, "Wi\u015bniowi": 1491, "\u0110\u00ecn": 1492, "\u0110\u00ecnh": 1493, "D\u01b0\u01a1n": 1494, "D\u01b0\u01a1ng": 1495, "V\u0103n": 1496, "Nguy\u1ec5n": 1497, "Tr\u1ea7n": 1498, "T\u1ea5n": 1499, "Qu\u1ea3n": 1500, "Qu\u1ea3ng": 1501, "Plu\u017ein": 1502, "H\u01b0\u01a1n": 1503, "H\u01b0\u01a1ng": 1504, "Ry\u016bjin": 1505, "Ry\u016bjinm": 1506, "j\u00f1\u0101n": 1507, "Ry\u016bjinmu": 1508, "Ry\u016bn": 1509, "Ry\u016bjinmur": 1510, "Ry\u016bno": 1511, "Tr\u01b0\u01a1n": 1512, "Tr\u01b0\u01a1ng": 1513, "Ry\u016bnos": 1514, "M\u00fcn": 1515, "qu\u00e9": 1516, "Ry\u016bnosu": 1517, "M\u00fcnc": 1518, "squ\u00e9": 1519, "Squ": 1520, "k\u0101n": 1521, "Ry\u016bnosuk": 1522, "usqu\u00e9": 1523, "k\u0101l": 1524, "M\u00fcnch": 1525, "s\u0142": 1526, "USAA": 1527, "TX": 1528, "GTX": 1529, "USAAF": 1530, "Busqu\u00e9": 1531, "ys\u0142": 1532, "h\u014d": 1533, "c\u00ed": 1534, "'s": 1535, "\u00f3n": 1536, "D\u00eda": 1537, "D\u00edaz": 1538, "Sh\u014d": 1539, "G\u00f3": 1540, "B\u00f3": 1541, "k\u00f3": 1542, "k\u00f3w": 1543, "G\u00f3m": 1544, "mB\u00f3": 1545, "w\u00f3": 1546, "Lw\u00f3": 1547, "Lw\u00f3w": 1548, "'\u00e9": 1549, "dys\u0142": 1550, "d\u014d": 1551, "s\u00f3": 1552, "Os\u00f3": 1553, "Os\u00f3r": 1554, "rc\u00ed": 1555, "Os\u00f3ri": 1556, "od\u014d": 1557, "Sh\u014dn": 1558, "hod\u014d": 1559, "oc\u00ed": 1560, "uhod\u014d": 1561, "Os\u00f3rio": 1562, "noc\u00ed": 1563, "r\u00f3n": 1564, "f\u00fcrs": 1565, "aqu\u00edn": 1566, "m\u00f3n": 1567, "rf\u00fcrs": 1568, "urf\u00fcrs": 1569, "ruhod\u014d": 1570, "oaqu\u00edn": 1571, "Kurf\u00fcrs": 1572, "Joaqu\u00edn": 1573, "onoc\u00ed": 1574, "arc\u00ed": 1575, "Garc\u00ed": 1576, "Conoc\u00ed": 1577, "Garc\u00eda": 1578, "\u0161ka": 1579, "a\u0161": 1580, "ra\u0161ka": 1581, "i\u0161ka": 1582, "Tu\u0111ma": 1583, "Pra\u0161ka": 1584, "Tu\u0111man": 1585, "ak\u00f3w": 1586, "rak\u00f3w": 1587, "s\u0142a": 1588, "Krak\u00f3w": 1589, "s\u0142aw": 1590, "adys\u0142aw": 1591, "W\u0142adys\u0142aw": 1592, "R\u00e9publica": 1593, "R\u00e9publicai": 1594, "W\u0142o": 1595, "Azza": 1596, "W\u0142od": 1597, "Azzar": 1598, "R\u00e9publicain": 1599, "F\u00e9d\u00e9ra": 1600, "W\u0142odz": 1601, "K\u014dsa": 1602, "K\u014dsak": 1603, "W\u0142odzi": 1604, "\u014czora": 1605, "W\u0142odzim": 1606, "K\u014dsaku": 1607, "\u00cdma": 1608, "\u00cdmar": 1609, "W\u0142odzimi": 1610, "L\u00e1grima": 1611, "L\u00e1grimas": 1612, "\u0141a": 1613, "\u0141as": 1614, "\u00c1lva": 1615, "\u0141asz": 1616, "\u00c1lvar": 1617, "aqq": 1618, "Saqq": 1619, "\u0141aszc": 1620, "\u00c1lvaro": 1621, "\u0141aszcz": 1622, "Saqqa": 1623, "Saqqar": 1624, "R\u1ecba": 1625, "Saqqara": 1626, "Od\u017ea": 1627, "Od\u017eak": 1628, "K\u014dka": 1629, "K\u014dkak": 1630, "Ry\u016bjinmura": 1631, "K\u014dkaku": 1632, "v\u0101da": 1633, "ah\u0101v\u012br": 1634, "Mah\u0101v\u012br": 1635, "Mah\u0101v\u012bra": 1636, "ahi\u1e43s\u0101": 1637, "a\u1e45g\u012b": 1638, "ha\u1e45g\u012b": 1639, "a\u1e25": 1640, "bha\u1e45g\u012b": 1641, "ya\u1e25": 1642, "k\u0101la": 1643, "vya\u1e25": 1644, "ibha\u1e45g\u012b": 1645, "bh\u0101va": 1646, "avya\u1e25": 1647, "aj\u00f1\u0101n": 1648, "laj\u00f1\u0101n": 1649, "alaj\u00f1\u0101n": 1650, "valaj\u00f1\u0101n": 1651, "valaj\u00f1\u0101na": 1652, "\u0100c\u0101rya": 1653, "a\u00f1j": 1654, "Sa\u00f1j": 1655, "Sa\u00f1ja": 1656, "Sa\u00f1jay": 1657, "a\u1e6d\u1e6dh": 1658, "la\u1e6d\u1e6dh": 1659, "Sa\u00f1jaya": 1660, "la\u1e6d\u1e6dha": 1661, "la\u1e6d\u1e6dhap": 1662, "Div\u0101ka": 1663, "la\u1e6d\u1e6dhapu": 1664, "Div\u0101kar": 1665, "aruhod\u014d": 1666, "Naruhod\u014d": 1667, "Div\u0101kara": 1668, "Bol\u00edva": 1669, "Bol\u00edvar": 1670, "Squa": 1671, "'\u00e9t": 1672, "Squad": 1673, "Squi": 1674, "'\u00e9ta": 1675, "F\u00f6rst": 1676, "Squar": 1677, "Squir": 1678, "Squadr": 1679, "'\u00e9tat": 1680, "Squadro": 1681, "ta\u0161": 1682, "sta\u0161": 1683, "Squadron": 1684, "Kurf\u00fcrst": 1685, "Usta\u0161": 1686, "L\u00fct": 1687, "L\u00fctz": 1688, "tuzzi": 1689, "L\u00fcth": 1690, "L\u00fctzo": 1691, "ntuzzi": 1692, "no\u00eet": 1693, "L\u00fctzow": 1694, "L\u00fctho": 1695, "antuzzi": 1696, "t\u00e1\u010dnik": 1697, "Fantuzzi": 1698, "Ft\u00e1\u010dnik": 1699, "L\u00fcthor": 1700, "'\u00eat": 1701, "L\u00fcthors": 1702, "'\u00eatr": 1703, "F\u00e9d\u00e9rat": 1704, "F\u00e9d\u00e9rati": 1705, "G\u00fcnt": 1706, "G\u00fcnth": 1707, "F\u00e9d\u00e9ratio": 1708, "766t": 1709, "766th": 1710, "F\u00e9d\u00e9ration": 1711, "549t": 1712, "549th": 1713, "588t": 1714, "588th": 1715, "\u00dalt": 1716, "\u00dalti": 1717, "445t": 1718, "\u00daltim": 1719, "445th": 1720, "ti\u0161ka": 1721, "uti\u0161ka": 1722, "\u00daltimo": 1723, "Schr\u00f6t": 1724, "auti\u0161ka": 1725, "k\u0101nt": 1726, "Tauti\u0161ka": 1727, "k\u0101nta": 1728, "tibha\u1e45g\u012b": 1729, "k\u0101ntav\u0101da": 1730, "ptibha\u1e45g\u012b": 1731, "tavya\u1e25": 1732, "ktavya\u1e25": 1733, "aptibha\u1e45g\u012b": 1734, "la\u1e6d\u1e6dhaput": 1735, "saptibha\u1e45g\u012b": 1736, "aktavya\u1e25": 1737, "la\u1e6d\u1e6dhaputt": 1738, "vaktavya\u1e25": 1739, "la\u1e6d\u1e6dhaputta": 1740, "rg\u00f6t": 1741, "rg\u00f6tz": 1742, "avaktavya\u1e25": 1743, "L\u00fcthorst": 1744, "Squirt": 1745, "IIF": 1746, "d\u00f8": 1747, "K7": 1748, "\u00f1o": 1749, "\u00fal": 1750, ".122": 1751, "h\u00e1": 1752, "Kh\u00e1": 1753, "\u00falz": 1754, "E.122": 1755, "IIFA": 1756, "Squirtl": 1757, "S\u00e1": 1758, "C\u00e1": 1759, "o\u00f1": 1760, "Do\u00f1": 1761, "C\u00e1l": 1762, "od\u00f8": 1763, "n\u00fa": 1764, "Kn\u00fa": 1765, "Bod\u00f8": 1766, "C\u00e1li": 1767, "Kh\u00e1n": 1768, "s\u00f8": 1769, "Do\u00f1a": 1770, "ms\u00f8": 1771, "C\u00e1lid": 1772, "Kh\u00e1nh": 1773, "r\u00f8": 1774, "ah\u00e1": 1775, "Bah\u00e1": 1776, "oms\u00f8": 1777, "C\u00e1lida": 1778, "C\u00e1lidas": 1779, "roms\u00f8": 1780, "a\u00falz": 1781, "Ka\u00falz": 1782, "Troms\u00f8": 1783, "Ka\u00falza": 1784, "Kn\u00fat": 1785, "OK": 1786, "UE": 1787, "<f": 1788, "\u0101d": 1789, "ju": 1790, "ATV": 1791, "is\u0142aw": 1792, "IV": 1793, "xp": 1794, "UEF": 1795, "NOK": 1796, "ROK": 1797, "UEFA": 1798, "HIV": 1799, "HOK": 1800, "m\u0101d": 1801, "IVA": 1802, "juju": 1803, "Kn\u00fatr": 1804, "<fo": 1805, "nis\u0142aw": 1806, "Ju": 1807, "i\u02bb": 1808, "CHOK": 1809, "Ju\u00e1": 1810, "r\u0101d": 1811, "kr\u0101d": 1812, "Ju\u00e1r": 1813, "Akr\u0101d": 1814, "<for": 1815, "i\u02bbi": 1816, "<form": 1817, "m\u0101di": 1818, "o\u02bb": 1819, "Ho\u02bb": 1820, "<formu": 1821, "<formul": 1822, "Ho\u02bbo": 1823, "Ho\u02bbol": 1824, "o\u02bbo": 1825, "Ho\u02bbolu": 1826, "o\u02bbol": 1827, "Ho\u02bbolul": 1828, "no\u02bbol": 1829, "anis\u0142aw": 1830, "Ho\u02bbolulu": 1831, "ino\u02bbol": 1832, "ai\u02bbi": 1833, "Kino\u02bbol": 1834, "wai\u02bbi": 1835, "<formula": 1836, "<formula>": 1837, "awai\u02bbi": 1838, "Hawai\u02bbi": 1839, "am\u0101di": 1840, "tanis\u0142aw": 1841, "Stanis\u0142aw": 1842, "ram\u0101di": 1843, "jujut": 1844, "kram\u0101di": 1845, "jujuts": 1846, "jujutsu": 1847, "ikram\u0101di": 1848, "Vikram\u0101di": 1849, "Vikram\u0101dit": 1850, ".69": 1851, "352n": 1852, "im\u00f3n": 1853, "c\u00e9": 1854, "1980s": 1855, "TVL": 1856, "Sim\u00f3n": 1857, "Vikram\u0101dity": 1858, "352nd": 1859, "TVLi": 1860, "nc\u00e9": 1861, "M\u00e9": 1862, "TVLin": 1863, "onc\u00e9": 1864, "L\u00e9": 1865, "yonc\u00e9": 1866, "L\u00e9g": 1867, "B\u00e9": 1868, "B\u00e9d": 1869, "L\u00e9gi": 1870, "L\u00e9o": 1871, "g\u00e9": 1872, "am\u00f3n": 1873, "\u00e9g\u00e9": 1874, "Ram\u00f3n": 1875, "L\u00e9gio": 1876, "L\u00e9on": 1877, "rg\u00e9": 1878, "L\u00e9gion": 1879, "anc\u00e9": 1880, "ianc\u00e9": 1881, "fianc\u00e9": 1882, "ig\u00e9": 1883, "hig\u00e9": 1884, "phig\u00e9": 1885, "Iphig\u00e9": 1886, "Iphig\u00e9n": 1887, "Vikram\u0101ditya": 1888, "Iphig\u00e9ni": 1889, "B\u00e9da": 1890, "t\u00e9g\u00e9": 1891, "P\u00e9": 1892, "272n": 1893, "272nd": 1894, "P\u00e9r": 1895, "B\u00e9dar": 1896, "ot\u00e9g\u00e9": 1897, "i\u00e3": 1898, "U.": 1899, "XN": 1900, "\u00c6s": 1901, "n\u00e7": 1902, "C\u00e9": 1903, "Ev": 1904, "Gi\u00e3": 1905, "MXN": 1906, "U.S": 1907, "B\u00e9dard": 1908, "rot\u00e9g\u00e9": 1909, "C\u00e9c": 1910, "\u00e7a": 1911, "\u00c6st": 1912, "U.S.": 1913, "prot\u00e9g\u00e9": 1914, "\u00c6sth": 1915, "\u00e7ad": 1916, "C\u00e9s": 1917, "C\u00e9ci": 1918, "n\u00e7o": 1919, "\u00c6t": 1920, "\u00e7am": 1921, "C\u00e9cil": 1922, "\u00c6th": 1923, "U.S.H": 1924, ".U.S.H": 1925, "R.U.S.H": 1926, ".R.U.S.H": 1927, "C.R.U.S.H": 1928, "C.R.U.S.H.": 1929, "\u00e7amb": 1930, "\u00e7ambi": 1931, "\u00e7ambiqu": 1932, "o\u00e7ambiqu": 1933, "C\u00e9sa": 1934, "Mo\u00e7ambiqu": 1935, "C\u00e9sar": 1936, "a\u00e7ad": 1937, "n\u00e7oi": 1938, "fa\u00e7ad": 1939, "n\u00e7ois": 1940, "an\u00e7ois": 1941, "HX": 1942, "n\u00e7ai": 1943, "\u00e3o": 1944, "FE": 1945, "THX": 1946, "AFE": 1947, "n\u00e7ais": 1948, "ran\u00e7ois": 1949, "on\u00e7a": 1950, "n\u00e3": 1951, "Fran\u00e7ois": 1952, "SAFE": 1953, "an\u00e7ais": 1954, "ran\u00e7ais": 1955, "an\u00e3": 1956, "i\u0107": 1957, "Jul": 1958, "Un": 1959, "1960s": 1960, "Ox": 1961, "USG": 1962, "Fran\u00e7ais": 1963, "USGS": 1964, "July": 1965, "Oxf": 1966, "can\u00e3": 1967, "vi\u0107": 1968, "Oxb": 1969, "fran\u00e7ais": 1970, "pi\u0107": 1971, "EU": 1972, "ovi\u0107": 1973, "kovi\u0107": 1974, "povi\u0107": 1975, "rkovi\u0107": 1976, "rpi\u0107": 1977, "gi\u0107": 1978, "ipovi\u0107": 1979, "Prpi\u0107": 1980, "sipovi\u0107": 1981, "rkovi\u0107i": 1982, "ogi\u0107": 1983, "Nogi\u0107": 1984, "osipovi\u0107": 1985, "Josipovi\u0107": 1986, "Oxbo": 1987, "Oxbow": 1988, "Oxfo": 1989, "Juli": 1990, "acan\u00e3": 1991, "Oxfor": 1992, "Oxford": 1993, "racan\u00e3": 1994, "Oxfa": 1995, "Oxfam": 1996, "aracan\u00e3": 1997, "Maracan\u00e3": 1998, "\u0107a": 1999, "Uni": 2000, "1U": 2001, "1UP": 2002, "Univ": 2003, "Und": 2004, "Up": 2005, "1UP.": 2006, "UC": 2007, "UCN": 2008, "UCL": 2009, "IUCN": 2010, "UCI": 2011, "UCLA": 2012, "1UP.c": 2013, "CU": 2014, "ECU": 2015, "CUM": 2016, "CUMM": 2017, "SCUMM": 2018, "ICU": 2019, "CCU": 2020, "1UP.co": 2021, "AU": 2022, "FAU": 2023, "IAU": 2024, "1UP.com": 2025, "PU": 2026, "GPU": 2027, "SPU": 2028, "FU": 2029, "Upp": 2030, "GPUs": 2031, "WSPU": 2032, "RFU": 2033, "UP": 2034, "UPN": 2035, "UPT": 2036, "RU": 2037, "WRU": 2038, "SU": 2039, "Unit": 2040, "li\u0107": 2041, "LSU": 2042, "BSU": 2043, "SUO": 2044, "Unio": 2045, "ti\u0107": 2046, "Unl": 2047, "502n": 2048, "1950s": 2049, "by": 2050, "G\u00e9": 2051, "502nd": 2052, "Unic": 2053, "G\u00e9r": 2054, "Unli": 2055, "Union": 2056, "Unlik": 2057, "Unif": 2058, "Unico": 2059, "G\u00e9ra": 2060, "bj": 2061, "Unlim": 2062, "ubj": 2063, "G\u00e9rar": 2064, "Unicod": 2065, "M\u00e9t": 2066, "i\u00e8": 2067, "Yo": 2068, "ck": 2069, "\u00d8s": 2070, "zi\u00e8": 2071, "vi\u00e8": 2072, "Si\u00e8": 2073, "M\u00e9d": 2074, "Si\u00e8c": 2075, "i\u00e8m": 2076, "G\u00e9rard": 2077, "bi\u00e8": 2078, "Si\u00e8cl": 2079, "You": 2080, "subj": 2081, "Unicor": 2082, "YouT": 2083, "i\u00e8r": 2084, "YouTu": 2085, "rbi\u00e8r": 2086, "Unlimi": 2087, "YouTub": 2088, "ivi\u00e8r": 2089, "Rivi\u00e8r": 2090, "M\u00e9ti": 2091, "ozi\u00e8r": 2092, "Pozi\u00e8r": 2093, "M\u00e9tis": 2094, "orbi\u00e8r": 2095, "Unicorn": 2096, "Corbi\u00e8r": 2097, "obj": 2098, "Yor": 2099, "Unlimit": 2100, "York": 2101, "Yok": 2102, "bji": 2103, "Yoko": 2104, "abji": 2105, "ti\u00e8m": 2106, "Yokoz": 2107, "gti\u00e8m": 2108, "rabji": 2109, "ti\u00e8r": 2110, "Yokozu": 2111, "orabji": 2112, "ngti\u00e8m": 2113, "Sorabji": 2114, "ingti\u00e8m": 2115, "nti\u00e8r": 2116, "Vingti\u00e8m": 2117, "onti\u00e8r": 2118, "Yokozun": 2119, "\u00d8st": 2120, "g\u00e8": 2121, "Yu": 2122, "ug\u00e8": 2123, "ronti\u00e8r": 2124, "Eug\u00e8": 2125, "Fronti\u00e8r": 2126, "Eug\u00e8n": 2127, "h\u00e8": 2128, "Yokozuna": 2129, "Yug": 2130, "ph\u00e8": 2131, "\u00e8g": 2132, "f\u00e8g": 2133, "d\u00e8": 2134, "lf\u00e8g": 2135, "d\u00e8s": 2136, "id\u00e8s": 2137, "Yugo": 2138, "lid\u00e8s": 2139, "Yugos": 2140, "oph\u00e8": 2141, "Yugosl": 2142, "roph\u00e8": 2143, "olid\u00e8s": 2144, "proph\u00e8": 2145, "olf\u00e8g": 2146, "Yuk": 2147, "Yugosla": 2148, "tolid\u00e8s": 2149, "Yugoslav": 2150, "stolid\u00e8s": 2151, "solf\u00e8g": 2152, "ostolid\u00e8s": 2153, "proph\u00e8t": 2154, "Uk": 2155, "Yugoslavi": 2156, "postolid\u00e8s": 2157, "Ukr": 2158, "Yugoslavia": 2159, "HU": 2160, "HUR": 2161, "Apostolid\u00e8s": 2162, "HURD": 2163, "BHU": 2164, "Ukra": 2165, "UF": 2166, "ANZACs": 2167, "UFO": 2168, "HURDA": 2169, "HURDAT": 2170, "BUF": 2171, "Ukrai": 2172, "\u0101s": 2173, "enj\u014d": 2174, "Senj\u014d": 2175, "Ukrain": 2176, "n\u0101s": 2177, "n\u0101st": 2178, "Unlike": 2179, "n\u0101sti": 2180, "\u00c6sthe": 2181, "\u00c6sthet": 2182, "subje": 2183, "subjec": 2184, "\u00c6stheti": 2185, "Unive": 2186, "\u00c6sthetic": 2187, "Univer": 2188, "subject": 2189, "obje": 2190, "objec": 2191, "Univers": 2192, "Unde": 2193, "Under": 2194, "Universi": 2195, "object": 2196, "muzzle": 2197, "Universit": 2198, "Unlimite": 2199, "University": 2200, "Unlimited": 2201, "Ju\u00e1re": 2202, "Ju\u00e1rez": 2203, "Universiti": 2204, "G\u00f3me": 2205, "G\u00f3mez": 2206, "Gonz\u00e1le": 2207, "Gonz\u00e1lez": 2208, "Square": 2209, "F\u00f6rste": 2210, "F\u00f6rster": 2211, "eli\u0107": 2212, "veli\u0107": 2213, "J\u00e9r\u00f4me": 2214, "aveli\u0107": 2215, "YouTube": 2216, "Paveli\u0107": 2217, "es\u0142aw": 2218, "les\u0142aw": 2219, "\u017be": 2220, "\u017bel": 2221, "oles\u0142aw": 2222, "e\u0144ski": 2223, "\u017bele\u0144ski": 2224, "Boles\u0142aw": 2225, "W\u0142odzimie": 2226, "W\u0142odzimier": 2227, "\u00d6se": 2228, "W\u0142odzimierz": 2229, "\u00d6sel": 2230, "puzzle": 2231, "puzzles": 2232, "R\u00e9solue": 2233, "L\u00f3pe": 2234, "L\u00f3pez": 2235, "G\u00e1lve": 2236, "G\u00e1lvez": 2237, "K\u00f6ppe": 2238, "K\u00f6ppen": 2239, "eyonc\u00e9": 2240, "Beyonc\u00e9": 2241, "Universitie": 2242, "Universities": 2243, "H\u00e4me": 2244, "H\u00e4mee": 2245, "H\u00e4meen": 2246, "ensv\u00e4rd": 2247, "H\u00e4meenm": 2248, "rensv\u00e4rd": 2249, "e\u015f": 2250, "hrensv\u00e4rd": 2251, "re\u015f": 2252, "H\u00e4meenma": 2253, "fran\u00e7aise": 2254, "Ehrensv\u00e4rd": 2255, "ure\u015f": 2256, "H\u00e4meenmaa": 2257, "erg\u00e9": 2258, "Herg\u00e9": 2259, "Mure\u015f": 2260, "Vingti\u00e8me": 2261, "Si\u00e8cle": 2262, "eno\u00eet": 2263, "Beno\u00eet": 2264, "TVLine": 2265, "'\u00eatre": 2266, "fa\u00e7ade": 2267, "Azzare": 2268, "Azzarel": 2269, "Go\u00e2ve": 2270, "Azzarell": 2271, "M\u00e9de": 2272, "M\u00e9dec": 2273, "Azzarello": 2274, "Fronti\u00e8re": 2275, "Fronti\u00e8res": 2276, "M\u00e9deci": 2277, "Rivi\u00e8re": 2278, "M\u00e9decin": 2279, "Jule": 2280, "M\u00e9decins": 2281, "Jules": 2282, "G\u00fcnthe": 2283, "G\u00fcnther": 2284, "R\u00e9gime": 2285, "R\u00e9gimen": 2286, "\u00cele": 2287, "R\u00e9giment": 2288, "Iphig\u00e9nie": 2289, "Sh\u014dne": 2290, "Sh\u014dnen": 2291, "K\u014de": 2292, "K\u014den": 2293, "Eug\u00e8ne": 2294, "K\u014denj": 2295, "proph\u00e8te": 2296, "K\u014denji": 2297, "J\u00fcrge": 2298, "J\u00fcrgen": 2299, "T\u00f8nsbe": 2300, "T\u00f8nsber": 2301, "\u00c5le": 2302, "T\u00f8nsberg": 2303, "\u00c5les": 2304, "er\u00f8": 2305, "\u00c5lesu": 2306, "der\u00f8": 2307, "ider\u00f8": 2308, "\u00c5lesun": 2309, "Wider\u00f8": 2310, "\u00c5lesund": 2311, "Wider\u00f8e": 2312, "Fran\u00e7aise": 2313, "Wi\u015bniowie": 2314, "Wi\u015bniowieck": 2315, "\u00c6the": 2316, "\u00c6thel": 2317, "Wi\u015bniowiecki": 2318, "129Xe": 2319, "\u00c6thelr": 2320, "133Xe": 2321, "\u00c6thelre": 2322, "\u00c6thelred": 2323, "135Xe": 2324, "er\u00f3n": 2325, "Per\u00f3n": 2326, "P\u00e9re": 2327, "P\u00e9rez": 2328, "der\u00f3n": 2329, "R\u00e4ikk\u00f6ne": 2330, "lder\u00f3n": 2331, "R\u00e4ikk\u00f6nen": 2332, "Rh\u00f4ne": 2333, "alder\u00f3n": 2334, "C\u00e9cile": 2335, "Calder\u00f3n": 2336, "Pozi\u00e8re": 2337, "Pozi\u00e8res": 2338, "er\u00eas": 2339, "her\u00eas": 2340, "ev\u00e5l": 2341, "cher\u00eas": 2342, "lev\u00e5l": 2343, "T\u00e5se": 2344, "llev\u00e5l": 2345, "ncher\u00eas": 2346, "Ullev\u00e5l": 2347, "T\u00e5sen": 2348, "ancher\u00eas": 2349, "Puzzle": 2350, "Tancher\u00eas": 2351, "Corbi\u00e8re": 2352, "Corbi\u00e8res": 2353, "N\u00eeme": 2354, "N\u00eemes": 2355, "e\u0107a": 2356, "le\u0107a": 2357, "erkovi\u0107i": 2358, "Berkovi\u0107i": 2359, "ile\u0107a": 2360, "eti\u0107": 2361, "Bile\u0107a": 2362, "ceti\u0107": 2363, "Plu\u017eine": 2364, "nceti\u0107": 2365, "Kino\u02bbole": 2366, "anceti\u0107": 2367, "\u00d8ste": 2368, "ranceti\u0107": 2369, "Franceti\u0107": 2370, "\u00d8ster": 2371, "esm\u0117": 2372, "\u00d8sterd": 2373, "iesm\u0117": 2374, "Schr\u00f6te": 2375, "giesm\u0117": 2376, "Schr\u00f6ter": 2377, "\u00d8sterda": 2378, "Unicode": 2379, "\u00d8sterdal": 2380, "M\u00fcgge": 2381, "\u00d8sterdale": 2382, "\u00d8sterdalen": 2383, "e\u00f2": 2384, "he\u00f2": 2385, "ek\u0101ntav\u0101da": 2386, "Che\u00f2": 2387, "nek\u0101ntav\u0101da": 2388, "ek\u0101nta": 2389, "Anek\u0101ntav\u0101da": 2390, "nek\u0101nta": 2391, "anek\u0101ntav\u0101da": 2392, "anek\u0101nta": 2393, "k\u1e63e": 2394, "k\u1e63et": 2395, "evalaj\u00f1\u0101na": 2396, "kevalaj\u00f1\u0101na": 2397, "k\u1e63etr": 2398, "ela\u1e6d\u1e6dhaputta": 2399, "Bela\u1e6d\u1e6dhaputta": 2400, "k\u1e63etra": 2401, "Ry\u016bnosuke": 2402, "M\u00e1rque": 2403, "M\u00e1rquez": 2404, "S\u00e1e": 2405, "S\u00e1en": 2406, "Mo\u00e7ambique": 2407, "S\u00e1enz": 2408, "en\u00e7o": 2409, "ren\u00e7o": 2410, "M\u00eal\u00e9e": 2411, "uren\u00e7o": 2412, "erg\u00f6tz": 2413, "berg\u00f6tz": 2414, "ouren\u00e7o": 2415, "Eberg\u00f6tz": 2416, "Louren\u00e7o": 2417, "Eberg\u00f6tze": 2418, "Eberg\u00f6tzen": 2419, "D\u00fcsse": 2420, "D\u00fcssel": 2421, "N\u00f6lde": 2422, "N\u00f6ldek": 2423, "D\u00fcsseld": 2424, "M\u00fcnche": 2425, "D\u00fcsseldo": 2426, "M\u00fcnchen": 2427, "N\u00f6ldeke": 2428, "D\u00fcsseldor": 2429, "M\u00fcnchene": 2430, "D\u00fcsseldorf": 2431, "M\u00fcnchener": 2432, "Squirtle": 2433, "solf\u00e8ge": 2434, "exp": 2435, "1930s": 2436, "azz": 2437, "PTV": 2438, "Yog": 2439, "jazz": 2440, "Jazz": 2441, "'azz": 2442, "Mazz": 2443, "Yogy": 2444, "uxp": 2445, "Tuxp": 2446, "Yogi": 2447, "Yogis": 2448, "Tuxpa": 2449, "Yogish": 2450, "Tuxpan": 2451, "'azza": 2452, "Yogishv": 2453, "'azzam": 2454, "Yogya": 2455, "Yogyak": 2456, "Yogishva": 2457, "Yogishvar": 2458, "Yogyaka": 2459, "Yogyakar": 2460, "Yogishvara": 2461, "Mazza": 2462, "Yogyakart": 2463, "iazz": 2464, "Piazz": 2465, "azzl": 2466, "dazzl": 2467, "dazzli": 2468, "Piazzi": 2469, "dazzlin": 2470, "Yogyakarta": 2471, "zzy": 2472, "dazzling": 2473, "izzy": 2474, "ozz": 2475, "av\u0101da": 2476, "Pozz": 2477, "yav\u0101da": 2478, "dizzy": 2479, "izz": 2480, "Rizz": 2481, "ozzl": 2482, "Pozzo": 2483, "Pozzob": 2484, "lizz": 2485, "Rizzi": 2486, "zzo": 2487, "nozzl": 2488, "ayav\u0101da": 2489, "Blizz": 2490, "Nayav\u0101da": 2491, "izzl": 2492, "izzly": 2493, "rizzly": 2494, "Pozzobo": 2495, "zzon": 2496, "grizzly": 2497, "zzoni": 2498, "Pozzobon": 2499, "zzonic": 2500, "nayav\u0101da": 2501, "Blizza": 2502, "Pozzobone": 2503, "Pozzobonel": 2504, "Blizzar": 2505, "zzonico": 2506, "Pozzobonell": 2507, "Blizzard": 2508, "ezzonico": 2509, "Rezzonico": 2510, "Pozzobonelli": 2511, "nozzle": 2512, "o\u0142": 2513, "Jun": 2514, "Jun\u00ed": 2515, "ko\u0142": 2516, "a\u0142": 2517, "ha\u0142": 2518, "iko\u0142": 2519, "Jun\u00edn": 2520, "Miko\u0142": 2521, "cha\u0142": 2522, "icha\u0142": 2523, "Miko\u0142a": 2524, "Jup": 2525, "Unite": 2526, "BC": 2527, "Miko\u0142aj": 2528, "Micha\u0142": 2529, "BCE": 2530, "NBC": 2531, "BBC": 2532, "ABC": 2533, "United": 2534, "Jupi": 2535, "CNBC": 2536, "BCS": 2537, "Jupit": 2538, "IBC": 2539, "Unity": 2540, "Jupite": 2541, "'B": 2542, "Jupiter": 2543, "'Br": 2544, "Usta\u0161e": 2545, "1920s": 2546, "FI": 2547, "n\u00e1": 2548, "FIF": 2549, "FIFA": 2550, "FIT": 2551, "FIFP": 2552, "FIA": 2553, "FIB": 2554, "FIBA": 2555, "FIS": 2556, "FFI": 2557, "FISA": 2558, "FIE": 2559, "BFI": 2560, "FIES": 2561, "FIFPr": 2562, "'Bri": 2563, "FITs": 2564, "FIFPro": 2565, "in\u00e1": 2566, "Usta\u0161a": 2567, "'Brie": 2568, "v\u00e1": 2569, "rn\u00e1": 2570, "v\u00e1n": 2571, "nin\u00e1": 2572, "onin\u00e1": 2573, "rn\u00e1n": 2574, "Tonin\u00e1": 2575, "'Brien": 2576, "rn\u00e1nd": 2577, "tv\u00e1n": 2578, "stv\u00e1n": 2579, "ern\u00e1nd": 2580, "Fern\u00e1nd": 2581, "Istv\u00e1n": 2582, "Fern\u00e1nde": 2583, "Fern\u00e1ndez": 2584, "ern\u00e1n": 2585, "m\u00e1": 2586, "Hern\u00e1n": 2587, "um\u00e1": 2588, "Zum\u00e1": 2589, "m\u00e1s": 2590, "Zum\u00e1r": 2591, "om\u00e1s": 2592, "b\u00e1": 2593, "Tom\u00e1s": 2594, "lb\u00e1": 2595, "lb\u00e1s": 2596, "Zum\u00e1rr": 2597, "Zum\u00e1rra": 2598, "Zum\u00e1rrag": 2599, "alb\u00e1s": 2600, "\u00e1n": 2601, "Zz": 2602, "Uppe": 2603, "Unk": 2604, "1880s": 2605, "Xb": 2606, "RE": 2607, "Balb\u00e1s": 2608, "REL": 2609, "FREL": 2610, "FRELI": 2611, "VRE": 2612, "FRELIM": 2613, "TRE": 2614, "AVRE": 2615, "FRELIMO": 2616, "CTRE": 2617, "DRE": 2618, "ECTRE": 2619, "DRES": 2620, "PECTRE": 2621, "ADRES": 2622, "CRE": 2623, "Upper": 2624, "Uppi": 2625, "Xbo": 2626, "Unkn": 2627, "Zum\u00e1rraga": 2628, "Xbox": 2629, "MADRES": 2630, "SPECTRE": 2631, "Unkno": 2632, "Uppin": 2633, "Zza": 2634, "l\u00e1": 2635, "t\u00e1n": 2636, "ER": 2637, "271s": 2638, "UH": 2639, "OMADRES": 2640, "UHF": 2641, "ERA": 2642, "Unknow": 2643, "Zzap": 2644, "Upping": 2645, "ll\u00e1": 2646, "'ll\u00e1": 2647, "COMADRES": 2648, "Uppingh": 2649, "u'll\u00e1": 2650, "'u'll\u00e1": 2651, "'u'll\u00e1h": 2652, "c\u00e1n": 2653, "Unknown": 2654, "at\u00e1n": 2655, "cat\u00e1n": 2656, "r\u00e1n": 2657, "ac\u00e1n": 2658, "Yucat\u00e1n": 2659, "oac\u00e1n": 2660, "ar\u00e1n": 2661, "uar\u00e1n": 2662, "hoac\u00e1n": 2663, "Uppingha": 2664, "271st": 2665, "1840s": 2666, "June": 2667, "\u00edb": 2668, "Cuar\u00e1n": 2669, "Uppingham": 2670, "choac\u00e1n": 2671, "Junk": 2672, "a\u00edb": 2673, "r\u00ed": 2674, "jus": 2675, "ML": 2676, "jo": 2677, "38B": 2678, "Zr\u00ed": 2679, "Djok": 2680, "AML": 2681, "MLB": 2682, "RML": 2683, "PML": 2684, "TML": 2685, "la\u00edb": 2686, "r\u00edg": 2687, "HTML": 2688, "mla\u00edb": 2689, "r\u00edgu": 2690, "Amla\u00edb": 2691, "dr\u00edgu": 2692, "MLA": 2693, "ichoac\u00e1n": 2694, "odr\u00edgu": 2695, "Rodr\u00edgu": 2696, "Michoac\u00e1n": 2697, "Djoko": 2698, "Zr\u00edn": 2699, "\u00edk": 2700, "ar\u00ed": 2701, "Mar\u00ed": 2702, "v\u00edk": 2703, "Djokov": 2704, "Zr\u00edny": 2705, "Mar\u00eda": 2706, "Zr\u00ednyi": 2707, "Djokovi": 2708, "av\u00edk": 2709, "just": 2710, "Oj": 2711, "jux": 2712, "Junke": 2713, "jav\u00edk": 2714, "Djokovic": 2715, "Junker": 2716, "Oji": 2717, "juxt": 2718, "Rodr\u00edgue": 2719, "MLs": 2720, "Rodr\u00edguez": 2721, "kjav\u00edk": 2722, "Ojib": 2723, "Junkers": 2724, "juxta": 2725, "Dje": 2726, "Juny": 2727, "38A": 2728, "ykjav\u00edk": 2729, "Ojibw": 2730, "juxtap": 2731, "Djed": 2732, "Junyi": 2733, "Djedk": 2734, "juxtapo": 2735, "Dji": 2736, "Ojibwe": 2737, "Djib": 2738, "juxtapos": 2739, "Dja": 2740, "Djibo": 2741, "Djan": 2742, "Djedka": 2743, "eykjav\u00edk": 2744, "juxtaposi": 2745, "231s": 2746, "OT": 2747, "Reykjav\u00edk": 2748, "DOT": 2749, "TOT": 2750, "MDOT": 2751, "NOT": 2752, "KDOT": 2753, "FOT": 2754, "NOTS": 2755, "IDOT": 2756, "RIDOT": 2757, "AOT": 2758, "FOTA": 2759, "ADOT": 2760, "SDOT": 2761, "Djibou": 2762, "Djedkar": 2763, "231st": 2764, "juxtapose": 2765, "Universa": 2766, "1970s": 2767, "\u00edn": 2768, "WSDOT": 2769, "Universal": 2770, "juxtaposed": 2771, "t\u00edn": 2772, "Djibout": 2773, "st\u00edn": 2774, "Universe": 2775, "ust\u00edn": 2776, "rt\u00edn": 2777, "Djibouti": 2778, "Djedkare": 2779, "\u00edl": 2780, "1990s": 2781, "job": 2782, "jum": 2783, "p\u00e9": 2784, "Op\u00e9": 2785, "jump": 2786, "gust\u00edn": 2787, "art\u00edn": 2788, "Mart\u00edn": 2789, "Agust\u00edn": 2790, "mp\u00e9": 2791, "Op\u00e9r": 2792, "s\u00edl": 2793, "Imp\u00e9": 2794, "p\u00e9d": 2795, "s\u00edli": 2796, "Op\u00e9ra": 2797, "p\u00e9r": 2798, "op\u00e9r": 2799, "a\u00edl": 2800, "Ma\u00edl": 2801, "as\u00edli": 2802, "ras\u00edli": 2803, "Bras\u00edli": 2804, "Bras\u00edlia": 2805, "op\u00e9ra": 2806, "p\u00e9da": 2807, "Imp\u00e9t": 2808, "m\u00ed": 2809, "jor": 2810, "The": 2811, "361s": 2812, "Imp\u00e9tu": 2813, "p\u00e9dal": 2814, "m\u00edr": 2815, "joy": 2816, "jok": 2817, "p\u00e9dali": 2818, "njoy": 2819, "am\u00edr": 2820, "Ram\u00edr": 2821, "ajor": 2822, "361st": 2823, "Tjo": 2824, "Major": 2825, "major": 2826, "jory": 2827, "fjor": 2828, "fjord": 2829, "rjory": 2830, "jord": 2831, "arjory": 2832, "jou": 2833, "Marjory": 2834, "sjord": 2835, "rjor": 2836, "jour": 2837, "rjori": 2838, "nsjord": 2839, "njou": 2840, "onjou": 2841, "journ": 2842, "joi": 2843, "ansjord": 2844, "Honjou": 2845, "jock": 2846, "ransjord": 2847, "join": 2848, "Transjord": 2849, "Transjorda": 2850, "Transjordan": 2851, "arjori": 2852, "enjoy": 2853, "Marjori": 2854, "jocke": 2855, "jockey": 2856, "Imp\u00e9tue": 2857, "Imp\u00e9tueu": 2858, "Marjorie": 2859, "Imp\u00e9tueux": 2860, "p\u00e9dalie": 2861, "p\u00e9dalier": 2862, "Ram\u00edre": 2863, "Ram\u00edrez": 2864, "efjord": 2865, "jow": 2866, "Tjoa": 2867, "defjord": 2868, "ajow": 2869, "rajow": 2870, "ndefjord": 2871, "Krajow": 2872, "Krajowa": 2873, "andefjord": 2874, "Tjoe": 2875, "njo": 2876, "Sandefjord": 2877, "onjoin": 2878, "Tjoet": 2879, "anjo": 2880, "banjo": 2881, "conjoin": 2882, "ranjo": 2883, "conjoine": 2884, "Franjo": 2885, "conjoined": 2886, "enjo": 2887, "joh": 2888, "henjo": 2889, "john": 2890, "ohenjo": 2891, "ejohn": 2892, "djo": 2893, "Mohenjo": 2894, "lejohn": 2895, "rdjo": 2896, "djoini": 2897, "klejohn": 2898, "djoinin": 2899, "djoining": 2900, "iklejohn": 2901, "adjoining": 2902, "ardjo": 2903, "eiklejohn": 2904, "jos": 2905, "Meiklejohn": 2906, "hardjo": 2907, "ojo": 2908, "jost": 2909, "joke": 2910, "journa": 2911, "Thi": 2912, "s\u00e1": 2913, "Rojo": 2914, "journal": 2915, "ls\u00e1": 2916, "jostl": 2917, "This": 2918, "joki": 2919, "ols\u00e1": 2920, "ahardjo": 2921, "t\u00e1": 2922, "Tols\u00e1": 2923, "Rahardjo": 2924, "jostli": 2925, "ot\u00e1": 2926, "jokin": 2927, "joking": 2928, "got\u00e1": 2929, "jostlin": 2930, "journali": 2931, "Thir": 2932, "journe": 2933, "AVREs": 2934, "journey": 2935, "jostling": 2936, "Third": 2937, "journalis": 2938, "ogot\u00e1": 2939, "Thin": 2940, "Unifi": 2941, "Bogot\u00e1": 2942, "Thing": 2943, "Unifo": 2944, "Thirt": 2945, "Thirty": 2946, "Unifor": 2947, "journalist": 2948, "Unifie": 2949, "Things": 2950, "dizzyi": 2951, "journalism": 2952, "Uniform": 2953, "Unified": 2954, "dizzyin": 2955, "Thirte": 2956, "Yuki": 2957, "o\u00e3o": 2958, "Jo\u00e3o": 2959, "Yukiz": 2960, "dizzying": 2961, "Uniformi": 2962, "Yuko": 2963, "t\u00e3o": 2964, "Thirtee": 2965, "1870s": 2966, "juxtaposin": 2967, "juxtaposing": 2968, "Yukizu": 2969, "st\u00e3o": 2970, "Thirteen": 2971, "Yukizuk": 2972, "Yukon": 2973, "ast\u00e3o": 2974, "juxtaposit": 2975, "Gast\u00e3o": 2976, "juxtapositi": 2977, "Yukizuki": 2978, "juxtapositio": 2979, "Uniformit": 2980, "n\u00ed": 2981, "Ul": 2982, "UST": 2983, "NL": 2984, "1850s": 2985, "NUST": 2986, "INUST": 2987, "MINUST": 2988, "MINUSTA": 2989, "NLF": 2990, "MINUSTAH": 2991, "SNL": 2992, "DNL": 2993, "Uniformity": 2994, "NLD": 2995, "Ulj": 2996, "NLDS": 2997, "Uly": 2998, "NLC": 2999, "NLCS": 3000, "ANL": 3001, "ZANL": 3002, "ZANLA": 3003, "Ulys": 3004, "Ulji": 3005, "juxtaposition": 3006, "h\u00ed": 3007, "n\u00edt": 3008, "NU": 3009, "NUJ": 3010, "SNU": 3011, "Ulyss": 3012, "\u00eds": 3013, "Uljin": 3014, "ah\u00ed": 3015, "Bah\u00ed": 3016, "\u00edsi": 3017, "\u00edsim": 3018, "Bah\u00eda": 3019, "\u00edsima": 3020, "t\u00edsima": 3021, "Ulysse": 3022, "Ulysses": 3023, "nt\u00edsima": 3024, "en\u00edt": 3025, "Ben\u00edt": 3026, "ant\u00edsima": 3027, "Sant\u00edsima": 3028, "Ben\u00edte": 3029, "JU": 3030, "sy\u0101t": 3031, "Ben\u00edtez": 3032, "JUI": 3033, "sy\u0101n": 3034, "JUIC": 3035, "Uz": 3036, "Yue": 3037, "In": 3038, "767s": 3039, "Jung": 3040, "NX": 3041, "JUICE": 3042, "Uzb": 3043, "Jungl": 3044, "IG": 3045, "Junc": 3046, "IGN": 3047, "RIG": 3048, "TRIG": 3049, "TRIGA": 3050, "Junct": 3051, "Uzbe": 3052, "Uzbek": 3053, "Juncti": 3054, "Jungle": 3055, "Uzbeki": 3056, "Junctio": 3057, "Uzbekis": 3058, "Junction": 3059, "Juni": 3060, "UG": 3061, "UGO": 3062, "Junio": 3063, "Uzbekist": 3064, "Junior": 3065, "Uzbekista": 3066, "Juno": 3067, "1830s": 3068, "th": 3069, "Exc": 3070, "2D": 3071, "716th": 3072, "Exch": 3073, "156th": 3074, "130th": 3075, "19th": 3076, "19th-": 3077, "555th": 3078, "Uzbekistan": 3079, "127th": 3080, "Excha": 3081, "Junu": 3082, "Exchan": 3083, "Exchang": 3084, "Junun": 3085, "186th": 3086, "Ch": 3087, "116th": 3088, "Zh": 3089, "Zho": 3090, "57th": 3091, "Zhou": 3092, "Zha": 3093, "Wh": 3094, "Exchange": 3095, "20th": 3096, "Zhu": 3097, "Zhan": 3098, "69th": 3099, "Zhang": 3100, "Zhao": 3101, "17th": 3102, "18th": 3103, "Yokoh": 3104, "Yokoha": 3105, "ch": 3106, "CTV": 3107, "WII": 3108, "Zhi": 3109, "WWII": 3110, "CCTV": 3111, "Yokoham": 3112, "Zhis": 3113, "wh": 3114, "Zhe": 3115, "ch\u00e9": 3116, "Zhej": 3117, "Zhish": 3118, "ch\u00e9d": 3119, "Zheji": 3120, "ich\u00e9": 3121, "lich\u00e9": 3122, "clich\u00e9": 3123, "Zhejia": 3124, "Zhejian": 3125, "Yokohama": 3126, "Zhishe": 3127, "Sh": 3128, "Zhejiang": 3129, "'Sh": 3130, "Zhishen": 3131, "'Sha": 3132, "gh": 3133, "NC": 3134, "HNC": 3135, "NCA": 3136, "NCAA": 3137, "NCAP": 3138, "NCO": 3139, "NCH": 3140, "ugh": 3141, "NCHE": 3142, "ANCHE": 3143, "NCOs": 3144, "'Shar": 3145, "igh": 3146, "ough": 3147, "LANCHE": 3148, "Though": 3149, "Hugh": 3150, "ALANCHE": 3151, "High": 3152, "Ogh": 3153, "VALANCHE": 3154, "Highw": 3155, "Ligh": 3156, "AVALANCHE": 3157, "high": 3158, "Light": 3159, "though": 3160, "Oghr": 3161, "Nigh": 3162, "Night": 3163, "ight": 3164, "Eighth": 3165, "ighb": 3166, "ught": 3167, "Lightho": 3168, "Mugh": 3169, "Highbu": 3170, "Lighthou": 3171, "lthough": 3172, "Highbur": 3173, "ighbo": 3174, "Although": 3175, "Highbury": 3176, "Lighthous": 3177, "ighbou": 3178, "Highto": 3179, "highw": 3180, "rough": 3181, "aught": 3182, "Through": 3183, "brought": 3184, "Hightow": 3185, "Rough": 3186, "Drought": 3187, "through": 3188, "bought": 3189, "oughby": 3190, "loughby": 3191, "wrought": 3192, "fought": 3193, "lloughby": 3194, "drought": 3195, "ighbor": 3196, "ighborh": 3197, "ighbour": 3198, "Hought": 3199, "illoughby": 3200, "daught": 3201, "Willoughby": 3202, "Caught": 3203, "ighbourh": 3204, "caught": 3205, "Naught": 3206, "ighborho": 3207, "Naughty": 3208, "ighborhoo": 3209, "ighborhood": 3210, "ighbourho": 3211, "ighbourhoo": 3212, "ighbourhood": 3213, "Houghto": 3214, "sought": 3215, "nough": 3216, "although": 3217, "Lough": 3218, "Loughb": 3219, "Hough": 3220, "Enough": 3221, "dnought": 3222, "Houghton": 3223, "tough": 3224, "Loughbo": 3225, "Highwa": 3226, "Loughborough": 3227, "oughb": 3228, "Highway": 3229, "doughb": 3230, "roughbr": 3231, "oroughbr": 3232, "Thoroughbr": 3233, "doughbo": 3234, "highwa": 3235, "highway": 3236, "doughboy": 3237, "adnought": 3238, "augh": 3239, "Vaugh": 3240, "Laugh": 3241, "Maugh": 3242, "laugh": 3243, "Mugha": 3244, "Slaught": 3245, "Mughal": 3246, "taught": 3247, "Vaugha": 3248, "raught": 3249, "Vaughan": 3250, "Oghra": 3251, "Oghrat": 3252, "draught": 3253, "Maugha": 3254, "Maugham": 3255, "fraught": 3256, "Oghrati": 3257, "'Shara": 3258, "Bigh": 3259, "Roughl": 3260, "adnoughts": 3261, "Eight": 3262, "Roughly": 3263, "traught": 3264, "Bigho": 3265, "Oghratin": 3266, "ighborhoods": 3267, "straught": 3268, "Bighor": 3269, "Oghratina": 3270, "istraught": 3271, "Bighorn": 3272, "slaught": 3273, "Througho": 3274, "daughte": 3275, "Throughou": 3276, "distraught": 3277, "daughter": 3278, "eigh": 3279, "Leigh": 3280, "Neighbor": 3281, "weigh": 3282, "lighth": 3283, "Throughout": 3284, "Neighbors": 3285, "ightweight": 3286, "leigh": 3287, "height": 3288, "lightho": 3289, "lighthou": 3290, "lightweight": 3291, "rleigh": 3292, "ightho": 3293, "neighbor": 3294, "urleigh": 3295, "lighthous": 3296, "ighthoo": 3297, "neighbourhood": 3298, "Burleigh": 3299, "ighthood": 3300, "nighthood": 3301, "knighthood": 3302, "neighbour": 3303, "Height": 3304, "eadnought": 3305, "Heights": 3306, "readnought": 3307, "dreadnought": 3308, "Slaughte": 3309, "Slaughter": 3310, "slaughte": 3311, "slaughter": 3312, "lighthouse": 3313, "laughte": 3314, "laughter": 3315, "Thoroughbre": 3316, "Thoroughbred": 3317, "Lighthouse": 3318, "Hightowe": 3319, "light": 3320, "thighs": 3321, "highlight": 3322, "Highlight": 3323, "Flight": 3324, "Hightower": 3325, "Highlighti": 3326, "Highlightin": 3327, "flight": 3328, "Fight": 3329, "Highlighting": 3330, "Right": 3331, "neighbourhoods": 3332, "fight": 3333, "Laughi": 3334, "enough": 3335, "Laughs": 3336, "onough": 3337, "Laughin": 3338, "neighbouri": 3339, "roughl": 3340, "Thu": 3341, "yweight": 3342, "Donough": 3343, "vyweight": 3344, "roughly": 3345, "Laughing": 3346, "neighbourin": 3347, "neighbours": 3348, "neighbouring": 3349, "cDonough": 3350, "avyweight": 3351, "Thun": 3352, "Brough": 3353, "McDonough": 3354, "Thund": 3355, "Thus": 3356, "orough": 3357, "eavyweight": 3358, "Heavyweight": 3359, "Borough": 3360, "heavyweight": 3361, "borough": 3362, "thoroughly": 3363, "Thur": 3364, "thorough": 3365, "Thut": 3366, "Thurs": 3367, "lborough": 3368, "Thutm": 3369, "Thursd": 3370, "rlborough": 3371, "thoroughf": 3372, "brough": 3373, "Thunde": 3374, "Rights": 3375, "ygh": 3376, "Uygh": 3377, "Uyghu": 3378, "sbrough": 3379, "Thunder": 3380, "Thutmo": 3381, "thoroughfa": 3382, "Thunderb": 3383, "Thutmos": 3384, "thoroughfar": 3385, "Uyghur": 3386, "Thunderbi": 3387, "arlborough": 3388, "Marlborough": 3389, "Thunderbir": 3390, "Thursda": 3391, "Thursday": 3392, "Thunderbird": 3393, "aygh": 3394, "daygh": 3395, "Thunderbirds": 3396, "Udaygh": 3397, "Udaygha": 3398, "Uyghurs": 3399, "thoroughfare": 3400, "Udayghad": 3401, "esbrough": 3402, "lesbrough": 3403, "Thutmose": 3404, "trough": 3405, "ng": 3406, "Ingh": 3407, "CNY": 3408, "ZN": 3409, "whi": 3410, "ZND": 3411, "which": 3412, "Young": 3413, "dlesbrough": 3414, "ZNDH": 3415, "ddlesbrough": 3416, "Eng": 3417, "whil": 3418, "Ingr": 3419, "Ingha": 3420, "ingh": 3421, "Underg": 3422, "ckingh": 3423, "Singh": 3424, "uckingh": 3425, "Ingham": 3426, "Ingv": 3427, "Engl": 3428, "Buckingh": 3429, "Ingl": 3430, "Bingh": 3431, "mingh": 3432, "Undergr": 3433, "whit": 3434, "iddlesbrough": 3435, "Middlesbrough": 3436, "rmingh": 3437, "Undergro": 3438, "Engi": 3439, "Undergrou": 3440, "Engin": 3441, "irmingh": 3442, "Birmingh": 3443, "Undergroun": 3444, "Underground": 3445, "Birmingha": 3446, "Birmingham": 3447, "Bingha": 3448, "Bingham": 3449, "Buckingha": 3450, "Buckingham": 3451, "Binghamt": 3452, "Ingva": 3453, "ing": 3454, "whis": 3455, "whisk": 3456, "fighting": 3457, "neighboring": 3458, "laughing": 3459, "Fighting": 3460, "Nighting": 3461, "Yung": 3462, "weighing": 3463, "whip": 3464, "whim": 3465, "jumping": 3466, "Yong": 3467, "Ingval": 3468, "Yongd": 3469, "Ingvald": 3470, "King": 3471, "highlighting": 3472, "whist": 3473, "whistl": 3474, "joining": 3475, "Binghamto": 3476, "whistling": 3477, "Binghamton": 3478, "Yongdo": 3479, "Yongdok": 3480, "king": 3481, "Nightinga": 3482, "Kingd": 3483, "Nightingal": 3484, "Kingdo": 3485, "ingha": 3486, "jung": 3487, "neighbors": 3488, "Kingdom": 3489, "ingham": 3490, "jungl": 3491, "tingh": 3492, "ttingham": 3493, "stingh": 3494, "ottingham": 3495, "Nottingham": 3496, "stingho": 3497, "ningham": 3498, "Engine": 3499, "stinghou": 3500, "lingham": 3501, "nningham": 3502, "whistle": 3503, "unningham": 3504, "llingham": 3505, "stinghous": 3506, "jungle": 3507, "Cunningham": 3508, "illingham": 3509, "anningham": 3510, "whiske": 3511, "Gillingham": 3512, "Manningham": 3513, "whiskey": 3514, "estinghous": 3515, "Westinghous": 3516, "Westinghouse": 3517, "Nightingale": 3518, "Ingle": 3519, "whims": 3520, "Ingles": 3521, "whimsi": 3522, "white": 3523, "whimsic": 3524, "whiti": 3525, "whitis": 3526, "Inglesi": 3527, "whimsica": 3528, "while": 3529, "whitish": 3530, "whimsical": 3531, "Inglesid": 3532, "whils": 3533, "Enginee": 3534, "whilst": 3535, "Engineer": 3536, "Ingleside": 3537, "Nottinghams": 3538, "Nottinghamsh": 3539, "Engineering": 3540, "Engr": 3541, "whistles": 3542, "Ang": 3543, "Nottinghamshi": 3544, "Engra": 3545, "Enge": 3546, "ong": 3547, "Zongh": 3548, "Engrav": 3549, "Engel": 3550, "Song": 3551, "Engelm": 3552, "Long": 3553, "rongh": 3554, "trongh": 3555, "Nottinghamshir": 3556, "Cong": 3557, "strongh": 3558, "Kong": 3559, "zong": 3560, "strongho": 3561, "Engelma": 3562, "stronghol": 3563, "Engelman": 3564, "Zongha": 3565, "Zong": 3566, "Zongw": 3567, "stronghold": 3568, "Engelmann": 3569, "Zonghan": 3570, "Zongwa": 3571, "long": 3572, "Zongwang": 3573, "angh": 3574, "song": 3575, "Engrave": 3576, "Shangh": 3577, "Langh": 3578, "Tong": 3579, "mong": 3580, "nghi": 3581, "Engraver": 3582, "Among": 3583, "Hong": 3584, "nghis": 3585, "Chong": 3586, "Mong": 3587, "among": 3588, "Mongo": 3589, "Shangha": 3590, "rong": 3591, "Pong": 3592, "Mongol": 3593, "Shanghai": 3594, "trong": 3595, "wrong": 3596, "Wrong": 3597, "strong": 3598, "Strong": 3599, "cong": 3600, "kong": 3601, "Gong": 3602, "congr": 3603, "Pongo": 3604, "Mongoli": 3605, "Pongol": 3606, "Pongs": 3607, "Mongols": 3608, "Pongsa": 3609, "Pongsak": 3610, "Mongolia": 3611, "Pongola": 3612, "Bong": 3613, "enghis": 3614, "Genghis": 3615, "Pongolap": 3616, "Bonga": 3617, "Nottinghamshire": 3618, "Pongolapo": 3619, "Langhe": 3620, "Langhel": 3621, "Pongolapoo": 3622, "ekong": 3623, "Mekong": 3624, "Langhell": 3625, "Pongolapoor": 3626, "congre": 3627, "congreg": 3628, "Pongolapoort": 3629, "congra": 3630, "Langhelle": 3631, "Congr": 3632, "Along": 3633, "objecti": 3634, "objectiv": 3635, "congrat": 3636, "congres": 3637, "congrega": 3638, "Congre": 3639, "Congo": 3640, "congratu": 3641, "congregat": 3642, "congress": 3643, "congratul": 3644, "Congres": 3645, "congregati": 3646, "congressm": 3647, "objectio": 3648, "Congreg": 3649, "Congress": 3650, "congressi": 3651, "objection": 3652, "congregatio": 3653, "congratula": 3654, "congratulat": 3655, "objections": 3656, "congregation": 3657, "congressio": 3658, "Congrega": 3659, "Congregat": 3660, "congratulati": 3661, "congression": 3662, "congressma": 3663, "objective": 3664, "Congregati": 3665, "congressman": 3666, "congratulatio": 3667, "congressiona": 3668, "congregate": 3669, "Congol": 3670, "objectives": 3671, "congressional": 3672, "congregated": 3673, "congratulation": 3674, "Congregatio": 3675, "Congole": 3676, "objects": 3677, "ang": 3678, "Yang": 3679, "Yangj": 3680, "Yangz": 3681, "chang": 3682, "Yangzh": 3683, "xchang": 3684, "Kang": 3685, "Rang": 3686, "Evang": 3687, "Gang": 3688, "Lang": 3689, "Langu": 3690, "Chang": 3691, "Changing": 3692, "Thang": 3693, "congratulations": 3694, "Congoles": 3695, "ung": 3696, "Yangji": 3697, "Congregation": 3698, "changing": 3699, "angz": 3700, "Yangzho": 3701, "Yangjiang": 3702, "Hangz": 3703, "Hangzh": 3704, "Yangzhou": 3705, "Hung": 3706, "Kung": 3707, "rangz": 3708, "Hangzho": 3709, "ngth": 3710, "Shang": 3711, "Yangt": 3712, "angthong": 3713, "Yangtz": 3714, "Hangzhou": 3715, "uangthong": 3716, "Muangthong": 3717, "urangz": 3718, "angchang": 3719, "Hunga": 3720, "Bangchang": 3721, "Aurangz": 3722, "Hungar": 3723, "Hungary": 3724, "Bang": 3725, "Bangk": 3726, "Hungari": 3727, "'ung": 3728, "Wang": 3729, "ength": 3730, "Bangko": 3731, "length": 3732, "Hungaria": 3733, "change": 3734, "Bangkok": 3735, "Hungarian": 3736, "rength": 3737, "Length": 3738, "trength": 3739, "exchange": 3740, "strength": 3741, "Range": 3742, "Ranger": 3743, "exchanging": 3744, "Rangers": 3745, "Evange": 3746, "Evangel": 3747, "Congolese": 3748, "Evangeli": 3749, "Hunge": 3750, "Hunger": 3751, "Evangelis": 3752, "Yangtze": 3753, "Hungerf": 3754, "Evangelist": 3755, "Evangelin": 3756, "Aurangze": 3757, "jang": 3758, "Aurangzeb": 3759, "djang": 3760, "Hungerfo": 3761, "Evangeline": 3762, "Hungerfor": 3763, "edjang": 3764, "Oedjang": 3765, "Hungerford": 3766, "eng": 3767, "Tang": 3768, "wng": 3769, "Veng": 3770, "wngr": 3771, "owngr": 3772, "Tangy": 3773, "downgr": 3774, "Tangyi": 3775, "Tangyin": 3776, "downgra": 3777, "Peng": 3778, "Venge": 3779, "Pengu": 3780, "Vengeu": 3781, "downgrad": 3782, "Pengui": 3783, "Teng": 3784, "Tengu": 3785, "Penguin": 3786, "Vengeur": 3787, "downgrade": 3788, "downgraded": 3789, "Penguins": 3790, "angu": 3791, "oung": 3792, "acking": 3793, "young": 3794, "langu": 3795, "backing": 3796, "Chung": 3797, "Loung": 3798, "Sangu": 3799, "loung": 3800, "angul": 3801, "Sangui": 3802, "Lacking": 3803, "fung": 3804, "langua": 3805, "languag": 3806, "vangu": 3807, "fungu": 3808, "langui": 3809, "Sanguin": 3810, "Bung": 3811, "angula": 3812, "languid": 3813, "fungus": 3814, "Bungi": 3815, "angular": 3816, "vangua": 3817, "angulat": 3818, "iangulat": 3819, "vanguar": 3820, "vanguard": 3821, "riangulat": 3822, "triangulat": 3823, "triangulati": 3824, "triangulatio": 3825, "fungi": 3826, "hung": 3827, "triangulation": 3828, "funga": 3829, "Fung": 3830, "fungal": 3831, "Fungi": 3832, "Sung": 3833, "tangular": 3834, "language": 3835, "ctangular": 3836, "lounge": 3837, "ectangular": 3838, "rectangular": 3839, "Lounge": 3840, "triangulate": 3841, "Bungie": 3842, "Sanguine": 3843, "Dang": 3844, "Sanguinet": 3845, "Dange": 3846, "rang": 3847, "Dung": 3848, "icking": 3849, "Kicking": 3850, "kicking": 3851, "picking": 3852, "Sanguineti": 3853, "Danger": 3854, "hang": 3855, "ranging": 3856, "Dhang": 3857, "hanging": 3858, "Dangero": 3859, "licking": 3860, "Dhanga": 3861, "Orang": 3862, "ucking": 3863, "Dangerou": 3864, "clicking": 3865, "fucking": 3866, "ticking": 3867, "Dhangar": 3868, "ocking": 3869, "Sang": 3870, "Orange": 3871, "hocking": 3872, "sucking": 3873, "Dangerous": 3874, "Dangerousl": 3875, "shocking": 3876, "Dangerously": 3877, "sticking": 3878, "locking": 3879, "blocking": 3880, "mocking": 3881, "ecking": 3882, "checking": 3883, "pecking": 3884, "nlocking": 3885, "unlocking": 3886, "nocking": 3887, "Dunge": 3888, "Mang": 3889, "knocking": 3890, "rocking": 3891, "Dungeo": 3892, "Manga": 3893, "gang": 3894, "Grang": 3895, "chgang": 3896, "Dungeon": 3897, "Mangal": 3898, "Grange": 3899, "Granget": 3900, "nchgang": 3901, "Mangalo": 3902, "Mangalor": 3903, "Grangeto": 3904, "anchgang": 3905, "Panchgang": 3906, "Grangetow": 3907, "Grangetown": 3908, "Panchganga": 3909, "Mangalore": 3910, "range": 3911, "tacking": 3912, "ongu": 3913, "iz": 3914, "Xizong": 3915, "Shizong": 3916, "Wrang": 3917, "Qiz": 3918, "Qizh": 3919, "prang": 3920, "uizong": 3921, "Huizong": 3922, "Frang": 3923, "Wrangl": 3924, "ttacking": 3925, "Frangl": 3926, "wrang": 3927, "tongu": 3928, "Qizho": 3929, "Qizhou": 3930, "wrangl": 3931, "attacking": 3932, "wrangling": 3933, "aprang": 3934, "Saprang": 3935, "aizong": 3936, "lacking": 3937, "ozong": 3938, "Liz": 3939, "Taizong": 3940, "nzong": 3941, "aozong": 3942, "racking": 3943, "Gaozong": 3944, "Tracking": 3945, "hacking": 3946, "packing": 3947, "tracking": 3948, "inzong": 3949, "Shiz": 3950, "rangl": 3951, "tongue": 3952, "Qinzong": 3953, "Shizh": 3954, "trangl": 3955, "sacking": 3956, "Frangle": 3957, "Shizhong": 3958, "strangl": 3959, "Franglen": 3960, "Wrangle": 3961, "Wrangler": 3962, "strangle": 3963, "Longue": 3964, "pong": 3965, "upong": 3966, "mpong": 3967, "Longues": 3968, "nupong": 3969, "gong": 3970, "QC": 3971, "Tz": 3972, "Anupong": 3973, "Tzu": 3974, "ugong": 3975, "ongo": 3976, "ziz": 3977, "Aziz": 3978, "ongoing": 3979, "igong": 3980, "Longor": 3981, "dong": 3982, "ougong": 3983, "qigong": 3984, "angdong": 3985, "dougong": 3986, "hong": 3987, "Longori": 3988, "ziza": 3989, "phong": 3990, "uangdong": 3991, "Longoria": 3992, "ndong": 3993, "Guangdong": 3994, "iphong": 3995, "andong": 3996, "nong": 3997, "eziza": 3998, "ompong": 3999, "vang": 4000, "Qing": 4001, "zj": 4002, "Shandong": 4003, "Kompong": 4004, "Peziza": 4005, "thiphong": 4006, "tong": 4007, "uthiphong": 4008, "tongs": 4009, "ozj": 4010, "Vuthiphong": 4011, "Hozj": 4012, "Hozja": 4013, "Hozjan": 4014, "ampong": 4015, "Kampong": 4016, "avang": 4017, "tavang": 4018, "Stavang": 4019, "Stavange": 4020, "Stavanger": 4021, "enong": 4022, "denong": 4023, "evang": 4024, "ndenong": 4025, "evange": 4026, "Engli": 4027, "evangel": 4028, "Englis": 4029, "andenong": 4030, "Dandenong": 4031, "English": 4032, "evangeli": 4033, "Engla": 4034, "evangelic": 4035, "Englan": 4036, "Engle": 4037, "Vi": 4038, "izing": 4039, "Angl": 4040, "ugang": 4041, "Dhangars": 4042, "Mugang": 4043, "Viking": 4044, "Vij": 4045, "England": 4046, "evangelica": 4047, "evangelical": 4048, "Vija": 4049, "Vijay": 4050, "Muganga": 4051, "VI": 4052, "VID": 4053, "VP": 4054, "Vick": 4055, "Vijaya": 4056, "VIDE": 4057, "MVP": 4058, "Vijayan": 4059, "lizing": 4060, "VV": 4061, "Ange": 4062, "Anglo": 4063, "Vic": 4064, "VIDEO": 4065, "VVS": 4066, "Angel": 4067, "Angu": 4068, "Vijayana": 4069, "Vict": 4070, "cizing": 4071, "422n": 4072, "Fighte": 4073, "Whi": 4074, "77th": 4075, "Engler": 4076, "Vijayanag": 4077, "422nd": 4078, "icizing": 4079, "Fighter": 4080, "ticizing": 4081, "Anger": 4082, "Whil": 4083, "Victo": 4084, "Vijayanaga": 4085, "Angus": 4086, "Whe": 4087, "Victi": 4088, "Victim": 4089, "Angui": 4090, "Anguil": 4091, "Victims": 4092, "iticizing": 4093, "TWh": 4094, "Victor": 4095, "Anguill": 4096, "riticizing": 4097, "criticizing": 4098, "Vijayanagar": 4099, "Whit": 4100, "Victori": 4101, "Anguilla": 4102, "When": 4103, "While": 4104, "Why": 4105, "Ango": 4106, "Whig": 4107, "Victory": 4108, "Which": 4109, "Whip": 4110, "Angol": 4111, "Whils": 4112, "Victoria": 4113, "Whilst": 4114, "Whis": 4115, "Angola": 4116, "Whisk": 4117, "Vijayanagara": 4118, "Angr": 4119, "White": 4120, "Angry": 4121, "Whitby": 4122, "Angi": 4123, "Whiske": 4124, "Whiskey": 4125, "Whitw": 4126, "Angie": 4127, "Wha": 4128, "Angli": 4129, "Anglic": 4130, "What": 4131, "Who": 4132, "Whal": 4133, "Whitwo": 4134, "Anglica": 4135, "Anglican": 4136, "Whitwor": 4137, "Anglia": 4138, "Whale": 4139, "Whitworth": 4140, "Anglian": 4141, "Whaler": 4142, "Angle": 4143, "Whol": 4144, "iangular": 4145, "Upo": 4146, "Upon": 4147, "riangular": 4148, "Angles": 4149, "triangular": 4150, "Whalers": 4151, "Whole": 4152, "Anglese": 4153, "expl": 4154, "right": 4155, "Anglesey": 4156, "Wright": 4157, "Bright": 4158, "ighting": 4159, "Sighting": 4160, "might": 4161, "bright": 4162, "night": 4163, "Knight": 4164, "Wight": 4165, "knight": 4166, "sighting": 4167, "nightinga": 4168, "nightingal": 4169, "sightings": 4170, "Knights": 4171, "Brighto": 4172, "nightingale": 4173, "wight": 4174, "Dwight": 4175, "Brighton": 4176, "knights": 4177, "explo": 4178, "conge": 4179, "congl": 4180, "conges": 4181, "expla": 4182, "explor": 4183, "congest": 4184, "exploring": 4185, "expli": 4186, "congen": 4187, "explic": 4188, "congeni": 4189, "congenit": 4190, "explici": 4191, "explicit": 4192, "congesti": 4193, "explicitl": 4194, "explai": 4195, "congestio": 4196, "explicitly": 4197, "explain": 4198, "explaining": 4199, "explan": 4200, "congestion": 4201, "conglo": 4202, "explana": 4203, "conglom": 4204, "explanat": 4205, "congenita": 4206, "explos": 4207, "congenital": 4208, "explosi": 4209, "explosiv": 4210, "explanati": 4211, "explod": 4212, "exploding": 4213, "exploi": 4214, "explosio": 4215, "exploit": 4216, "explosion": 4217, "explanatio": 4218, "explosive": 4219, "explanation": 4220, "explode": 4221, "conglome": 4222, "exploded": 4223, "explosions": 4224, "conglomer": 4225, "explodes": 4226, "conglomera": 4227, "sq": 4228, "Unt": 4229, "Victorian": 4230, "jur": 4231, "Whee": 4232, "Underw": 4233, "Highl": 4234, "Du": 4235, "Might": 4236, "Mighty": 4237, "jury": 4238, "DuM": 4239, "Wheel": 4240, "DuV": 4241, "conglomerat": 4242, "Unti": 4243, "Underwo": 4244, "Until": 4245, "Unto": 4246, "Untol": 4247, "Underwoo": 4248, "Untold": 4249, "Underwood": 4250, "DuMo": 4251, "Esqu": 4252, "Duk": 4253, "njur": 4254, "Highla": 4255, "Ajur": 4256, "injury": 4257, "injur": 4258, "Esqui": 4259, "Highlan": 4260, "Highland": 4261, "Esquis": 4262, "DuMon": 4263, "juri": 4264, "Ajura": 4265, "DuMont": 4266, "Esquiss": 4267, "Ajuran": 4268, "juro": 4269, "juror": 4270, "juris": 4271, "DuVa": 4272, "DuVal": 4273, "jurisd": 4274, "jurors": 4275, "aq": 4276, "Wher": 4277, "DuVall": 4278, "Maq": 4279, "laqu": 4280, "jurist": 4281, "jurisdi": 4282, "Whed": 4283, "Plaqu": 4284, "plaqu": 4285, "jurisdic": 4286, "Wheth": 4287, "jurists": 4288, "raq": 4289, "Whedo": 4290, "aqua": 4291, "jud": 4292, "Iraq": 4293, "judg": 4294, "paq": 4295, "juk": 4296, "jurisdict": 4297, "juku": 4298, "aquat": 4299, "juv": 4300, "jurisdicti": 4301, "Whedon": 4302, "aquati": 4303, "jurisdictio": 4304, "jun": 4305, "ajuku": 4306, "Lju": 4307, "aquatic": 4308, "Ljub": 4309, "jug": 4310, "jub": 4311, "junc": 4312, "Ljubi": 4313, "jurisdiction": 4314, "rajuku": 4315, "juga": 4316, "junct": 4317, "jubi": 4318, "Ljubin": 4319, "jugal": 4320, "juw": 4321, "arajuku": 4322, "Ljubinj": 4323, "Harajuku": 4324, "jubil": 4325, "jugat": 4326, "juncti": 4327, "njugat": 4328, "junctio": 4329, "junction": 4330, "onjugat": 4331, "conjugat": 4332, "juwo": 4333, "juwon": 4334, "ajuwon": 4335, "lajuwon": 4336, "apaq": 4337, "jui": 4338, "Olajuwon": 4339, "wapaq": 4340, "juic": 4341, "dju": 4342, "juni": 4343, "squa": 4344, "djusting": 4345, "junk": 4346, "djut": 4347, "iju": 4348, "junio": 4349, "junior": 4350, "riju": 4351, "djustm": 4352, "junt": 4353, "rjun": 4354, "adjustm": 4355, "Arjun": 4356, "adjust": 4357, "junta": 4358, "ariju": 4359, "mariju": 4360, "marijua": 4361, "marijuan": 4362, "adjut": 4363, "marijuana": 4364, "adjuta": 4365, "adjutan": 4366, "arjun": 4367, "karjun": 4368, "adjutant": 4369, "ikarjun": 4370, "likarjun": 4371, "llikarjun": 4372, "allikarjun": 4373, "Mallikarjun": 4374, "Mallikarjuna": 4375, "Asqu": 4376, "squad": 4377, "Asqui": 4378, "squar": 4379, "usqu": 4380, "Unf": 4381, "adjustme": 4382, "Susqu": 4383, "Asquith": 4384, "adjustmen": 4385, "Unfo": 4386, "squal": 4387, "Unc": 4388, "Uncl": 4389, "adjustment": 4390, "Unfor": 4391, "Uncu": 4392, "Unfort": 4393, "Unfortu": 4394, "Uncut": 4395, "Unfortun": 4396, "squat": 4397, "isqual": 4398, "squall": 4399, "disqual": 4400, "squalls": 4401, "disquali": 4402, "squan": 4403, "Unfortuna": 4404, "Unb": 4405, "disqualif": 4406, "squand": 4407, "Unfortunat": 4408, "adjustments": 4409, "Unbr": 4410, "juve": 4411, "disqualifi": 4412, "juven": 4413, "injure": 4414, "injured": 4415, "juveni": 4416, "injurie": 4417, "juvenil": 4418, "injuries": 4419, "Where": 4420, "juvenile": 4421, "square": 4422, "conjugate": 4423, "conjugated": 4424, "Uncle": 4425, "Unbre": 4426, "Unbrea": 4427, "Duke": 4428, "Unbreak": 4429, "plaque": 4430, "Unbreaka": 4431, "Whethe": 4432, "Unbreakab": 4433, "Whether": 4434, "jubile": 4435, "Unbreakabl": 4436, "jubilee": 4437, "Unbreakable": 4438, "squande": 4439, "squander": 4440, "Unfortunate": 4441, "squandering": 4442, "Unfortunatel": 4443, "juice": 4444, "Unfortunately": 4445, "Unbe": 4446, "Unbek": 4447, "Susque": 4448, "Susqueh": 4449, "Unbekn": 4450, "Unfe": 4451, "Unbekno": 4452, "Susqueha": 4453, "Unbeknow": 4454, "Susquehan": 4455, "Unfea": 4456, "Plaque": 4457, "Unbeknown": 4458, "Unbeknowns": 4459, "Susquehann": 4460, "Unfear": 4461, "conglomerate": 4462, "Unbeknownst": 4463, "Susquehanna": 4464, "Unfeare": 4465, "Unfeared": 4466, "disqualifie": 4467, "disqualified": 4468, "Ljubinje": 4469, "ejuri": 4470, "Jejuri": 4471, "Esquisse": 4472, "Dur": 4473, "njunction": 4474, "juveniles": 4475, "During": 4476, "Dub": 4477, "Esquisses": 4478, "onjunction": 4479, "conjunction": 4480, "Durh": 4481, "Dubl": 4482, "injunction": 4483, "Duch": 4484, "Durg": 4485, "Dubli": 4486, "Duck": 4487, "Durha": 4488, "Duchy": 4489, "Wheele": 4490, "squadr": 4491, "Wheelch": 4492, "Durham": 4493, "Dublin": 4494, "Wheeler": 4495, "squadro": 4496, "Durga": 4497, "Ducks": 4498, "squadron": 4499, "Wheelcha": 4500, "Wheelchai": 4501, "Dura": 4502, "Durb": 4503, "Wheelchair": 4504, "Duran": 4505, "Durand": 4506, "Durr": 4507, "Durba": 4508, "judi": 4509, "judge": 4510, "osqu": 4511, "Mosqu": 4512, "judgm": 4513, "judic": 4514, "Bosqu": 4515, "mosqu": 4516, "Durban": 4517, "judo": 4518, "judici": 4519, "Durra": 4520, "judgme": 4521, "judok": 4522, "judgmen": 4523, "judgment": 4524, "Durran": 4525, "judicia": 4526, "judicial": 4527, "Durrant": 4528, "judoka": 4529, "ejudic": 4530, "judiciar": 4531, "judiciary": 4532, "rejudic": 4533, "prejudic": 4534, "prejudice": 4535, "Bosque": 4536, "prejudices": 4537, "sque": 4538, "D50": 4539, "LD50": 4540, "Mosqui": 4541, "Mosquit": 4542, "mosqui": 4543, "mosquit": 4544, "squi": 4545, "Mosquito": 4546, "esque": 4547, "squir": 4548, "mosquito": 4549, "squee": 4550, "squatt": 4551, "DZ": 4552, "squeez": 4553, "HDZ": 4554, "squirr": 4555, "mosquitoe": 4556, "mosquitoes": 4557, "squeeze": 4558, "squeezed": 4559, "squatte": 4560, "squatter": 4561, "squirre": 4562, "DX": 4563, "MDX": 4564, "squirrel": 4565, "squatters": 4566, "DN": 4567, "adjuste": 4568, "Whitt": 4569, "DNA": 4570, "adjusted": 4571, "squirrels": 4572, "Whitta": 4573, "Whitm": 4574, "Whittak": 4575, "Whitma": 4576, "Whitn": 4577, "Duche": 4578, "Duches": 4579, "Whitman": 4580, "Ducho": 4581, "Whita": 4582, "Whitne": 4583, "Whitak": 4584, "Duchov": 4585, "Whitney": 4586, "Duchess": 4587, "Whittake": 4588, "alizing": 4589, "YM": 4590, "VH": 4591, "changed": 4592, "VH1": 4593, "YMC": 4594, "YMCA": 4595, "VHS": 4596, "VHF": 4597, "Duchovn": 4598, "Whittaker": 4599, "ilizing": 4600, "Whitake": 4601, "changes": 4602, "Duchovny": 4603, "bilizing": 4604, "Whitaker": 4605, "olizing": 4606, "bolizing": 4607, "tilizing": 4608, "abilizing": 4609, "explore": 4610, "\u00e4u": 4611, "utilizing": 4612, "\u00e4um": 4613, "mbolizing": 4614, "tabilizing": 4615, "r\u00e4um": 4616, "explora": 4617, "Tr\u00e4um": 4618, "ymbolizing": 4619, "explorat": 4620, "stabilizing": 4621, "symbolizing": 4622, "explorati": 4623, "Tr\u00e4ume": 4624, "explored": 4625, "Eu": 4626, "joyf": 4627, "ack": 4628, "Jack": 4629, "jack": 4630, "joyfu": 4631, "Zack": 4632, "joyful": 4633, "back": 4634, "Eu2": 4635, "Eu2O": 4636, "Back": 4637, "Tr\u00e4umer": 4638, "Eu2O3": 4639, "Backg": 4640, "Eur": 4641, "exploratio": 4642, "Eug": 4643, "exploration": 4644, "Backgr": 4645, "EuS": 4646, "Euch": 4647, "Backgro": 4648, "Backgrou": 4649, "Euro": 4650, "backg": 4651, "Eucha": 4652, "Eup": 4653, "jackr": 4654, "Euge": 4655, "Euph": 4656, "Europ": 4657, "Backgroun": 4658, "Eurog": 4659, "Background": 4660, "Eugen": 4661, "backgr": 4662, "Euphr": 4663, "Euchar": 4664, "backgro": 4665, "Eura": 4666, "backgrou": 4667, "Euras": 4668, "Euchari": 4669, "Euroga": 4670, "Eurogam": 4671, "Eucharis": 4672, "Eurasi": 4673, "backgroun": 4674, "Euphra": 4675, "background": 4676, "Euphrat": 4677, "Eucharist": 4678, "Eurasia": 4679, "jackra": 4680, "Tr\u00e4umere": 4681, "jackrab": 4682, "Tr\u00e4umerei": 4683, "Eurogame": 4684, "jackrabb": 4685, "Eurogamer": 4686, "Euphrate": 4687, "lack": 4688, "Backy": 4689, "Black": 4690, "black": 4691, "Euphrates": 4692, "jackrabbi": 4693, "Backya": 4694, "Gack": 4695, "Europe": 4696, "Eurasian": 4697, "jackrabbit": 4698, "Backyar": 4699, "Gacko": 4700, "Eub": 4701, "ackD": 4702, "jacke": 4703, "mackD": 4704, "Backyard": 4705, "jacket": 4706, "SmackD": 4707, "SmackDo": 4708, "Euba": 4709, "Euc": 4710, "Eugene": 4711, "rack": 4712, "SmackDow": 4713, "Track": 4714, "Brack": 4715, "Eugeni": 4716, "Euban": 4717, "Eubank": 4718, "SmackDown": 4719, "track": 4720, "Eubanks": 4721, "Crack": 4722, "Brackn": 4723, "Cracks": 4724, "crack": 4725, "Eucl": 4726, "Mack": 4727, "Cracksm": 4728, "Eucli": 4729, "brack": 4730, "tack": 4731, "Eugenia": 4732, "Euclid": 4733, "pack": 4734, "ttack": 4735, "Cracksma": 4736, "tackl": 4737, "Pack": 4738, "Cracksman": 4739, "stack": 4740, "Wack": 4741, "Attack": 4742, "fpack": 4743, "Euca": 4744, "lfpack": 4745, "Eucal": 4746, "olfpack": 4747, "attack": 4748, "rrack": 4749, "Wolfpack": 4750, "Eucaly": 4751, "rracks": 4752, "Eucalyp": 4753, "arracks": 4754, "Barracks": 4755, "barracks": 4756, "Eucalypt": 4757, "arrack": 4758, "Sack": 4759, "barrack": 4760, "Eucalyptu": 4761, "Sacks": 4762, "hack": 4763, "tackling": 4764, "Wacke": 4765, "Wacket": 4766, "Eucalyptus": 4767, "Brackne": 4768, "Bracknel": 4769, "Wackett": 4770, "tackle": 4771, "Bracknell": 4772, "bracke": 4773, "bracket": 4774, "barracke": 4775, "barracked": 4776, "brackets": 4777, "Bracke": 4778, "ackn": 4779, "arack": 4780, "Barack": 4781, "Bracken": 4782, "ackno": 4783, "sack": 4784, "Brackenb": 4785, "acknow": 4786, "Brackenbu": 4787, "acknowl": 4788, "wack": 4789, "ywack": 4790, "mack": 4791, "Brackenbur": 4792, "dywack": 4793, "ddywack": 4794, "dack": 4795, "smack": 4796, "dsmack": 4797, "idack": 4798, "Widack": 4799, "Widacki": 4800, "Brackenburn": 4801, "odsmack": 4802, "addywack": 4803, "acknowle": 4804, "tackles": 4805, "wAttack": 4806, "Godsmack": 4807, "Paddywack": 4808, "acknowled": 4809, "ewAttack": 4810, "jackrabbits": 4811, "ick": 4812, "quick": 4813, "acknowledg": 4814, "Quick": 4815, "Nick": 4816, "acknowledging": 4817, "kick": 4818, "Dick": 4819, "quickl": 4820, "quickly": 4821, "Rick": 4822, "Ricky": 4823, "Chick": 4824, "Kick": 4825, "rewAttack": 4826, "crewAttack": 4827, "chick": 4828, "ock": 4829, "ScrewAttack": 4830, "Rock": 4831, "Lock": 4832, "uck": 4833, "Rocky": 4834, "chicks": 4835, "Chuck": 4836, "Tuck": 4837, "Luck": 4838, "Ick": 4839, "Lucky": 4840, "Buck": 4841, "Puck": 4842, "Buckl": 4843, "Luckn": 4844, "Buckh": 4845, "Luckno": 4846, "Auck": 4847, "Hock": 4848, "Chucky": 4849, "wick": 4850, "Twick": 4851, "Lucknow": 4852, "Auckl": 4853, "Buckho": 4854, "Dock": 4855, "Docky": 4856, "Buckhor": 4857, "Auckla": 4858, "lock": 4859, "Hocke": 4860, "Hockey": 4861, "block": 4862, "Clock": 4863, "Aucklan": 4864, "Auckland": 4865, "Buckhorn": 4866, "Clocks": 4867, "Glock": 4868, "rClock": 4869, "Block": 4870, "Dockya": 4871, "Dockyar": 4872, "Flock": 4873, "Dockyard": 4874, "Flocks": 4875, "clock": 4876, "Shock": 4877, "Twicke": 4878, "Twicken": 4879, "clockw": 4880, "flock": 4881, "Icke": 4882, "Twickenh": 4883, "Ickes": 4884, "clockwi": 4885, "erClock": 4886, "verClock": 4887, "clockwis": 4888, "clockwo": 4889, "Twickenha": 4890, "OverClock": 4891, "Twickenham": 4892, "clockwor": 4893, "clockwise": 4894, "clockwork": 4895, "OverClocke": 4896, "flocks": 4897, "ruck": 4898, "Buckla": 4899, "Truck": 4900, "OverClocked": 4901, "buck": 4902, "ucky": 4903, "truck": 4904, "Bucklan": 4905, "Buckle": 4906, "Buckley": 4907, "Buckland": 4908, "struck": 4909, "tucky": 4910, "lucky": 4911, "ntucky": 4912, "trucks": 4913, "eck": 4914, "Ack": 4915, "check": 4916, "Peck": 4917, "Keck": 4918, "Beck": 4919, "Leck": 4920, "Leckw": 4921, "Neck": 4922, "Check": 4923, "Leckwi": 4924, "Peckh": 4925, "yck": 4926, "Neckl": 4927, "Eyck": 4928, "Leckwith": 4929, "Neckla": 4930, "Necklac": 4931, "Peckha": 4932, "peck": 4933, "rck": 4934, "entucky": 4935, "Kentucky": 4936, "Peckham": 4937, "nck": 4938, "arck": 4939, "pecki": 4940, "Marck": 4941, "marck": 4942, "peckl": 4943, "Peckhams": 4944, "dpeck": 4945, "smarck": 4946, "speckl": 4947, "ismarck": 4948, "odpeck": 4949, "Bismarck": 4950, "oodpeck": 4951, "peckii": 4952, "anck": 4953, "Necklace": 4954, "woodpeck": 4955, "Necklaces": 4956, "lanck": 4957, "Planck": 4958, "ranck": 4959, "speckle": 4960, "Franck": 4961, "speckles": 4962, "woodpecke": 4963, "speckled": 4964, "woodpecker": 4965, "epecki": 4966, "zepecki": 4967, "woodpeckers": 4968, "deck": 4969, "acknowledge": 4970, "hock": 4971, "Rzepecki": 4972, "acknowledgm": 4973, "acknowledged": 4974, "shock": 4975, "neck": 4976, "Meck": 4977, "reck": 4978, "hocke": 4979, "hockey": 4980, "wreck": 4981, "shocked": 4982, "beck": 4983, "heck": 4984, "freck": 4985, "rbeck": 4986, "heckl": 4987, "freckl": 4988, "leck": 4989, "Kleck": 4990, "ueck": 4991, "fleck": 4992, "Klecks": 4993, "rueck": 4994, "recko": 4995, "Mecke": 4996, "Krueck": 4997, "ffleck": 4998, "reckon": 4999, "heckle": 5000, "Affleck": 5001, "reckoning": 5002, "heckled": 5003, "acknowledgme": 5004, "acknowledgmen": 5005, "erbeck": 5006, "lerbeck": 5007, "acknowledgment": 5008, "Kleckse": 5009, "llerbeck": 5010, "Ellerbeck": 5011, "Klecksel": 5012, "freckle": 5013, "freckles": 5014, "Tucke": 5015, "Mick": 5016, "Tucker": 5017, "rick": 5018, "Macki": 5019, "Eg": 5020, "Egy": 5021, "Crick": 5022, "Mackin": 5023, "Wick": 5024, "Egyp": 5025, "Wickf": 5026, "Egu": 5027, "Eguch": 5028, "Egg": 5029, "Egypt": 5030, "Wickfo": 5031, "crick": 5032, "Mackina": 5033, "thick": 5034, "Mackinaw": 5035, "Mackinac": 5036, "brick": 5037, "Eguchi": 5038, "Wickfor": 5039, "pick": 5040, "Wickford": 5041, "Pick": 5042, "Trick": 5043, "Egm": 5044, "Egypti": 5045, "Tricky": 5046, "Egmo": 5047, "Egyptia": 5048, "trick": 5049, "Cricke": 5050, "Cricket": 5051, "Egyptian": 5052, "Egmon": 5053, "Frick": 5054, "Egmont": 5055, "Brick": 5056, "cricke": 5057, "cricket": 5058, "Wicke": 5059, "Wickes": 5060, "Egge": 5061, "Egged": 5062, "Fricke": 5063, "Egi": 5064, "Fick": 5065, "Egit": 5066, "Ego": 5067, "Ficke": 5068, "Tick": 5069, "Strick": 5070, "Strickl": 5071, "Egitt": 5072, "Ficket": 5073, "Egon": 5074, "Egitto": 5075, "Strickla": 5076, "Ticke": 5077, "Ticket": 5078, "Fickett": 5079, "Stricklan": 5080, "Strickland": 5081, "tick": 5082, "Macke": 5083, "Ackr": 5084, "CE": 5085, "Europa": 5086, "CEO": 5087, "ACE": 5088, "Ackro": 5089, "Europi": 5090, "Macken": 5091, "Acke": 5092, "stick": 5093, "joystick": 5094, "Mackenz": 5095, "nightstick": 5096, "Ackroy": 5097, "Europiu": 5098, "Mackenzi": 5099, "Macker": 5100, "Europium": 5101, "Ackroyd": 5102, "Mackerr": 5103, "Acker": 5104, "Europo": 5105, "Stick": 5106, "Mackerra": 5107, "sticky": 5108, "Mackenzie": 5109, "nick": 5110, "Knick": 5111, "Europos": 5112, "Knicks": 5113, "Mackerras": 5114, "Ackers": 5115, "Sticks": 5116, "Ackerso": 5117, "nickn": 5118, "vick": 5119, "vicky": 5120, "Ackerson": 5121, "ovicky": 5122, "nickna": 5123, "lick": 5124, "ticke": 5125, "rock": 5126, "kovicky": 5127, "Throck": 5128, "nicknam": 5129, "ticket": 5130, "click": 5131, "Throckm": 5132, "flick": 5133, "akovicky": 5134, "tickets": 5135, "dick": 5136, "Jock": 5137, "nickname": 5138, "Makovicky": 5139, "ddick": 5140, "Throckmo": 5141, "sick": 5142, "mick": 5143, "Throckmor": 5144, "nicknamed": 5145, "slick": 5146, "oddick": 5147, "Roddick": 5148, "mmick": 5149, "Throckmort": 5150, "licki": 5151, "immick": 5152, "Throckmorto": 5153, "alicki": 5154, "Palicki": 5155, "gimmick": 5156, "Throckmorton": 5157, "iddick": 5158, "rmick": 5159, "ticks": 5160, "Cock": 5161, "Riddick": 5162, "Cockb": 5163, "imick": 5164, "ormick": 5165, "addick": 5166, "Cormick": 5167, "Caddick": 5168, "Cockbu": 5169, "mimick": 5170, "cCormick": 5171, "Cockn": 5172, "McCormick": 5173, "Cockbur": 5174, "mimicke": 5175, "mimicked": 5176, "Cockburn": 5177, "Cockne": 5178, "otick": 5179, "Bock": 5180, "Kotick": 5181, "Cockney": 5182, "Bocks": 5183, "chicke": 5184, "atrick": 5185, "Patrick": 5186, "chicken": 5187, "patrick": 5188, "chickens": 5189, "zpatrick": 5190, "kpatrick": 5191, "tzpatrick": 5192, "acknowledges": 5193, "sickl": 5194, "sickly": 5195, "itzpatrick": 5196, "rkpatrick": 5197, "acknowledgem": 5198, "Jacks": 5199, "Juliu": 5200, "Ganga": 5201, "Fitzpatrick": 5202, "Julius": 5203, "irkpatrick": 5204, "Jackso": 5205, "Gangan": 5206, "sickle": 5207, "Kirkpatrick": 5208, "Juliusz": 5209, "Jackson": 5210, "Gangane": 5211, "Ganganel": 5212, "acknowledgeme": 5213, "Ganganell": 5214, "acknowledgemen": 5215, "Gange": 5216, "Gangad": 5217, "1860s": 5218, "explorer": 5219, "Gangadh": 5220, "acknowledgement": 5221, "Ganges": 5222, "Ganganelli": 5223, "Gangadha": 5224, "explorers": 5225, "\u00f1ol": 5226, "WW": 5227, "WWE": 5228, "WWF": 5229, "Gangadhar": 5230, "a\u00f1ol": 5231, "i\u00f1o": 5232, "1250s": 5233, "Ni\u00f1o": 5234, "ta\u00f1ol": 5235, "Gangadhara": 5236, "\u00f1or": 5237, "sta\u00f1ol": 5238, "\u00f1ora": 5239, "Esta\u00f1ol": 5240, "e\u00f1ora": 5241, "Se\u00f1ora": 5242, "e\u00f1o": 5243, "Docks": 5244, "me\u00f1o": 5245, "erick": 5246, "Ukraini": 5247, "resque": 5248, "NE": 5249, "NEA": 5250, "NET": 5251, "CNET": 5252, "NES": 5253, "ANES": 5254, "derick": 5255, "uresque": 5256, "sme\u00f1o": 5257, "Ukrainia": 5258, "nesque": 5259, "rrick": 5260, "Ukraine": 5261, "BANES": 5262, "verick": 5263, "merick": 5264, "turesque": 5265, "isme\u00f1o": 5266, "Ukrainian": 5267, "Ukraina": 5268, "cturesque": 5269, "imerick": 5270, "risme\u00f1o": 5271, "anesque": 5272, "Limerick": 5273, "manesque": 5274, "icturesque": 5275, "arisme\u00f1o": 5276, "Marisme\u00f1o": 5277, "picturesque": 5278, "omanesque": 5279, "averick": 5280, "drick": 5281, "Romanesque": 5282, "Maverick": 5283, "prick": 5284, "ndrick": 5285, "prickl": 5286, "ricks": 5287, "ederick": 5288, "ricksh": 5289, "edericksb": 5290, "prickly": 5291, "rederick": 5292, "Frederick": 5293, "Fredericksbu": 5294, "ricksha": 5295, "eresque": 5296, "rickshaw": 5297, "ueresque": 5298, "Fredericksbur": 5299, "endrick": 5300, "tesque": 5301, "arrick": 5302, "Varrick": 5303, "Kendrick": 5304, "gueresque": 5305, "Fredericksburg": 5306, "rickshaws": 5307, "igueresque": 5308, "otesque": 5309, "errick": 5310, "Derrick": 5311, "rotesque": 5312, "grotesque": 5313, "rigueresque": 5314, "Change": 5315, "gangs": 5316, "rangem": 5317, "E3": 5318, "yang": 5319, "angyang": 5320, "rrangem": 5321, "iangyang": 5322, "rrigueresque": 5323, "Arrangem": 5324, "gangst": 5325, "Xiangyang": 5326, "urrigueresque": 5327, "arrangem": 5328, "ryang": 5329, "Changed": 5330, "Churrigueresque": 5331, "churrigueresque": 5332, "aryang": 5333, "Changes": 5334, "arrangeme": 5335, "Maryang": 5336, "arrangemen": 5337, "gangste": 5338, "arrangement": 5339, "gangster": 5340, "Arrangeme": 5341, "oyang": 5342, "dang": 5343, "uoyang": 5344, "Arrangemen": 5345, "Luoyang": 5346, "Arrangement": 5347, "oyangs": 5348, "aoyangs": 5349, "Chaoyangs": 5350, "Chaoyangsa": 5351, "dange": 5352, "angx": 5353, "Chaoyangsau": 5354, "uangx": 5355, "dangl": 5356, "Guangx": 5357, "dangling": 5358, "Guangxi": 5359, "danger": 5360, "Chaoyangsaur": 5361, "angl": 5362, "ealizing": 5363, "Europea": 5364, "Realizing": 5365, "Chaoyangsauru": 5366, "ializing": 5367, "European": 5368, "Bangla": 5369, "cializing": 5370, "Banglad": 5371, "Chaoyangsaurus": 5372, "realizing": 5373, "Langle": 5374, "Langley": 5375, "ecializing": 5376, "pecializing": 5377, "Banglade": 5378, "specializing": 5379, "Banglades": 5380, "Kangle": 5381, "mang": 5382, "Bangladesh": 5383, "Kangley": 5384, "manga": 5385, "Cang": 5386, "mangr": 5387, "kang": 5388, "angle": 5389, "angling": 5390, "imang": 5391, "nkang": 5392, "mangro": 5393, "Simang": 5394, "mangrov": 5395, "angli": 5396, "anglic": 5397, "Simango": 5398, "ankang": 5399, "mangrove": 5400, "Fang": 5401, "anglicu": 5402, "iankang": 5403, "Hang": 5404, "Congregationa": 5405, "l\u00e9": 5406, "84th": 5407, "jokes": 5408, "Jiankang": 5409, "Congregational": 5410, "anglicus": 5411, "tl\u00e9": 5412, "Atl\u00e9": 5413, "l\u00e9v": 5414, "l\u00e9vy": 5415, "l\u00e9m": 5416, "Atl\u00e9t": 5417, "Atl\u00e9ti": 5418, "ol\u00e9": 5419, "pol\u00e9": 5420, "Atl\u00e9tic": 5421, "Atl\u00e9tico": 5422, "pol\u00e9o": 5423, "al\u00e9vy": 5424, "Hal\u00e9vy": 5425, "pol\u00e9on": 5426, "apol\u00e9on": 5427, "el\u00e9m": 5428, "Congregationali": 5429, "joked": 5430, "NH": 5431, "ghu": 5432, "Napol\u00e9on": 5433, "Bel\u00e9m": 5434, "NHL": 5435, "ghuv": 5436, "NHC": 5437, "MNH": 5438, "BMNH": 5439, "NHA": 5440, "NHS": 5441, "AMNH": 5442, "Congregationalis": 5443, "aghuv": 5444, "Raghuv": 5445, "Congregationalist": 5446, "Congregationalists": 5447, "Raghuve": 5448, "oghu": 5449, "noghu": 5450, "eghu": 5451, "beghu": 5452, "onoghu": 5453, "Donoghu": 5454, "mbeghu": 5455, "ambeghu": 5456, "Donoghue": 5457, "Sambeghu": 5458, "Raghuvee": 5459, "Raghuveer": 5460, "the": 5461, "jackets": 5462, "Ult": 5463, "who": 5464, "68th": 5465, "280th": 5466, "48th": 5467, "16th": 5468, "11th": 5469, "12th": 5470, "9th": 5471, "13th": 5472, "125th": 5473, "87th": 5474, "750th": 5475, "strengthen": 5476, "strengthening": 5477, "lengthen": 5478, "65th": 5479, "54th": 5480, "Ulti": 5481, "Ultim": 5482, "Ultr": 5483, "67th": 5484, "Youth": 5485, "78th": 5486, "8th": 5487, "36th": 5488, "7th": 5489, "Ultima": 5490, "Ultimat": 5491, "Ultra": 5492, "15th": 5493, "Ultrat": 5494, "44th": 5495, "Ultrati": 5496, "14th": 5497, "Ultratip": 5498, "90th": 5499, "10th": 5500, "5th": 5501, "56th": 5502, "4th": 5503, "76th": 5504, "6th": 5505, "Ultimate": 5506, "Ultimatel": 5507, "lengthene": 5508, "Ultimately": 5509, "lengthened": 5510, "whe": 5511, "Uls": 5512, "Ulst": 5513, "wha": 5514, "when": 5515, "ize": 5516, "why": 5517, "Wiz": 5518, "what": 5519, "ized": 5520, "wher": 5521, "Ulste": 5522, "whethe": 5523, "Ulster": 5524, "whal": 5525, "Wiza": 5526, "where": 5527, "whaling": 5528, "whether": 5529, "Wizar": 5530, "whel": 5531, "whelm": 5532, "Wizard": 5533, "whelming": 5534, "Wizards": 5535, "rwhelm": 5536, "whar": 5537, "wharv": 5538, "wham": 5539, "erwhelm": 5540, "verwhelm": 5541, "whamm": 5542, "overwhelm": 5543, "whammy": 5544, "owhar": 5545, "wharve": 5546, "Jowhar": 5547, "wharves": 5548, "whale": 5549, "iza": 5550, "whaleb": 5551, "Piz": 5552, "quiz": 5553, "Pizh": 5554, "whalebo": 5555, "Pizhi": 5556, "whalebon": 5557, "Giz": 5558, "izat": 5559, "izab": 5560, "Gizm": 5561, "Niza": 5562, "Nizam": 5563, "hiza": 5564, "lizab": 5565, "izati": 5566, "Gizmo": 5567, "Elizab": 5568, "izabl": 5569, "Gizmod": 5570, "biza": 5571, "liza": 5572, "Eliza": 5573, "wiza": 5574, "hizal": 5575, "rhiza": 5576, "rrhiza": 5577, "bizar": 5578, "bizarr": 5579, "lizar": 5580, "lizard": 5581, "wizar": 5582, "nizati": 5583, "wizard": 5584, "nizatio": 5585, "nization": 5586, "lizatio": 5587, "lization": 5588, "orrhiza": 5589, "corrhiza": 5590, "ycorrhiza": 5591, "mycorrhiza": 5592, "omycorrhiza": 5593, "tomycorrhiza": 5594, "ctomycorrhiza": 5595, "izatio": 5596, "ization": 5597, "Gizmodo": 5598, "rization": 5599, "anization": 5600, "ganization": 5601, "mization": 5602, "onization": 5603, "riz": 5604, "Prize": 5605, "chanization": 5606, "Ariz": 5607, "viz": 5608, "prize": 5609, "manization": 5610, "lonization": 5611, "vizi": 5612, "rganization": 5613, "Organization": 5614, "ionization": 5615, "rmanization": 5616, "rnization": 5617, "rizo": 5618, "rizon": 5619, "organization": 5620, "olonization": 5621, "Colonization": 5622, "colonization": 5623, "orizon": 5624, "Arizona": 5625, "Horizon": 5626, "horizon": 5627, "horizont": 5628, "amization": 5629, "izh": 5630, "ectomycorrhiza": 5631, "namization": 5632, "izho": 5633, "horizonta": 5634, "izhou": 5635, "horizontal": 5636, "tnamization": 5637, "aizhou": 5638, "biz": 5639, "ectomycorrhizae": 5640, "Caizhou": 5641, "wbiz": 5642, "izu": 5643, "izur": 5644, "uiz": 5645, "owbiz": 5646, "Luiz": 5647, "Ruiz": 5648, "howbiz": 5649, "hiz": 5650, "showbiz": 5651, "eizur": 5652, "seizur": 5653, "rhiz": 5654, "thizer": 5655, "rhizo": 5656, "rhizom": 5657, "thizers": 5658, "rhizomo": 5659, "athizers": 5660, "seizure": 5661, "pathizers": 5662, "rhizomor": 5663, "Elizabe": 5664, "Elizabeth": 5665, "rhizomorp": 5666, "mpathizers": 5667, "ermanization": 5668, "Germanization": 5669, "rhizomorph": 5670, "ympathizers": 5671, "echanization": 5672, "mechanization": 5673, "rhizomorphs": 5674, "sympathizers": 5675, "bizarre": 5676, "izable": 5677, "erizon": 5678, "Verizon": 5679, "ernization": 5680, "dernization": 5681, "whalebone": 5682, "odernization": 5683, "vizie": 5684, "modernization": 5685, "vizier": 5686, "etnamization": 5687, "tiz": 5688, "sizable": 5689, "ilization": 5690, "Vietnamization": 5691, "vilization": 5692, "ptized": 5693, "itize": 5694, "Citize": 5695, "bilization": 5696, "citize": 5697, "tilization": 5698, "ivilization": 5699, "Civilization": 5700, "civilization": 5701, "citizen": 5702, "Citizen": 5703, "nizable": 5704, "gnizable": 5705, "niz": 5706, "rtilization": 5707, "bniz": 5708, "gnize": 5709, "gnizing": 5710, "ibniz": 5711, "rtiz": 5712, "ognize": 5713, "Ortiz": 5714, "cognize": 5715, "ognizing": 5716, "cognizing": 5717, "ognizable": 5718, "citizens": 5719, "cognizable": 5720, "Citizens": 5721, "abilization": 5722, "tabilization": 5723, "aptized": 5724, "Stabilization": 5725, "baptized": 5726, "anized": 5727, "ganized": 5728, "stabilization": 5729, "chanized": 5730, "vanized": 5731, "rganized": 5732, "alization": 5733, "lized": 5734, "lvanized": 5735, "calization": 5736, "cized": 5737, "organized": 5738, "icized": 5739, "ocalization": 5740, "alvanized": 5741, "galvanized": 5742, "vocalization": 5743, "localization": 5744, "ticized": 5745, "acized": 5746, "licized": 5747, "iticized": 5748, "racized": 5749, "anize": 5750, "citizensh": 5751, "sized": 5752, "ecognize": 5753, "ganize": 5754, "blicized": 5755, "tracized": 5756, "citizenshi": 5757, "riticized": 5758, "citizenship": 5759, "ublicized": 5760, "criticized": 5761, "stracized": 5762, "recognize": 5763, "publicized": 5764, "rganize": 5765, "rnize": 5766, "organize": 5767, "ostracized": 5768, "thesized": 5769, "gized": 5770, "etized": 5771, "retized": 5772, "ogized": 5773, "nthesized": 5774, "mized": 5775, "ernized": 5776, "ynthesized": 5777, "cretized": 5778, "ymized": 5779, "logized": 5780, "dernized": 5781, "synthesized": 5782, "ncretized": 5783, "othesized": 5784, "echanized": 5785, "yncretized": 5786, "pothesized": 5787, "mechanized": 5788, "nymized": 5789, "omized": 5790, "ypothesized": 5791, "syncretized": 5792, "onymized": 5793, "hypothesized": 5794, "nonymized": 5795, "odernized": 5796, "ynonymized": 5797, "modernized": 5798, "ologized": 5799, "tomized": 5800, "ecognizing": 5801, "pologized": 5802, "domized": 5803, "stomized": 5804, "ustomized": 5805, "synonymized": 5806, "ndomized": 5807, "recognizing": 5808, "apologized": 5809, "ertilization": 5810, "fertilization": 5811, "customized": 5812, "andomized": 5813, "elization": 5814, "velization": 5815, "randomized": 5816, "ernize": 5817, "dernize": 5818, "ovelization": 5819, "ecognizable": 5820, "novelization": 5821, "recognizable": 5822, "odernize": 5823, "eibniz": 5824, "size": 5825, "alized": 5826, "Leibniz": 5827, "modernize": 5828, "lize": 5829, "ilized": 5830, "onizing": 5831, "eized": 5832, "talization": 5833, "bilized": 5834, "ylized": 5835, "dized": 5836, "Size": 5837, "seized": 5838, "ionizing": 5839, "tilized": 5840, "utilized": 5841, "tylized": 5842, "gize": 5843, "rdized": 5844, "olized": 5845, "anizing": 5846, "italization": 5847, "ganizing": 5848, "pitalization": 5849, "bolized": 5850, "stylized": 5851, "ntalization": 5852, "rtilized": 5853, "ogize": 5854, "ardized": 5855, "cize": 5856, "mbolized": 5857, "logize": 5858, "dolized": 5859, "ymbolized": 5860, "dardized": 5861, "spitalization": 5862, "idolized": 5863, "symbolized": 5864, "icize": 5865, "ndardized": 5866, "rganizing": 5867, "ospitalization": 5868, "hospitalization": 5869, "ologize": 5870, "pologize": 5871, "organizing": 5872, "ticize": 5873, "andardized": 5874, "ertilized": 5875, "fertilized": 5876, "licize": 5877, "tandardized": 5878, "iticize": 5879, "blicize": 5880, "standardized": 5881, "riticize": 5882, "ublicize": 5883, "criticize": 5884, "publicize": 5885, "criticizes": 5886, "apologize": 5887, "entalization": 5888, "mize": 5889, "mentalization": 5890, "imize": 5891, "overwhelme": 5892, "lizards": 5893, "overwhelmed": 5894, "tmentalization": 5895, "nimize": 5896, "vocalizations": 5897, "timize": 5898, "inimize": 5899, "rtmentalization": 5900, "viziers": 5901, "minimize": 5902, "itimize": 5903, "artmentalization": 5904, "Horizons": 5905, "organizer": 5906, "eize": 5907, "orizing": 5908, "Weize": 5909, "thorizing": 5910, "gitimize": 5911, "partmentalization": 5912, "dize": 5913, "uthorizing": 5914, "mpartmentalization": 5915, "seize": 5916, "Weizen": 5917, "idize": 5918, "xidize": 5919, "Weizenb": 5920, "rdize": 5921, "ompartmentalization": 5922, "authorizing": 5923, "organizers": 5924, "egitimize": 5925, "compartmentalization": 5926, "legitimize": 5927, "xidizes": 5928, "sidize": 5929, "oxidizes": 5930, "ardize": 5931, "bsidize": 5932, "pardize": 5933, "Weizenba": 5934, "orization": 5935, "thorization": 5936, "ubsidize": 5937, "gorization": 5938, "uthorization": 5939, "Weizenbau": 5940, "subsidize": 5941, "opardize": 5942, "authorization": 5943, "egorization": 5944, "Weizenbaum": 5945, "tegorization": 5946, "eopardize": 5947, "obilized": 5948, "jeopardize": 5949, "mobilized": 5950, "abilized": 5951, "tabilized": 5952, "ategorization": 5953, "onized": 5954, "categorization": 5955, "stabilized": 5956, "ionized": 5957, "enized": 5958, "alize": 5959, "qualize": 5960, "lenized": 5961, "tionized": 5962, "ilize": 5963, "hacke": 5964, "quilize": 5965, "utionized": 5966, "bilize": 5967, "lutionized": 5968, "llenized": 5969, "tilize": 5970, "nquilize": 5971, "utilize": 5972, "nquilizer": 5973, "rtilize": 5974, "rtilizer": 5975, "rtilizers": 5976, "hacker": 5977, "olutionized": 5978, "abilize": 5979, "volutionized": 5980, "tabilize": 5981, "anquilizer": 5982, "equalize": 5983, "stabilize": 5984, "ranquilizer": 5985, "evolutionized": 5986, "tranquilizer": 5987, "revolutionized": 5988, "ertilizers": 5989, "fertilizers": 5990, "ellenized": 5991, "olize": 5992, "utilizes": 5993, "Hellenized": 5994, "bolize": 5995, "elize": 5996, "alizes": 5997, "Belize": 5998, "mbolize": 5999, "ealizes": 6000, "ymbolize": 6001, "ializes": 6002, "realizes": 6003, "whee": 6004, "cializes": 6005, "wheel": 6006, "symbolize": 6007, "whea": 6008, "Mart\u00edne": 6009, "Mart\u00ednez": 6010, "wheelch": 6011, "wheat": 6012, "ecializes": 6013, "pecializes": 6014, "wheatg": 6015, "wheelcha": 6016, "Vicke": 6017, "specializes": 6018, "wheelchai": 6019, "Vicki": 6020, "Vicker": 6021, "Vickers": 6022, "wheelchair": 6023, "wheatgr": 6024, "Vice": 6025, "wheatgra": 6026, "Langue": 6027, "apologizes": 6028, "300th": 6029, "Langued": 6030, "wheatgras": 6031, "Langua": 6032, "Becke": 6033, "Languag": 6034, "wheatgrass": 6035, "Becker": 6036, "Languedo": 6037, "Languedoc": 6038, "Language": 6039, "organizations": 6040, "50th": 6041, "erizing": 6042, "terizing": 6043, "arizing": 6044, "Que": 6045, "cterizing": 6046, "larizing": 6047, "Qui": 6048, "Quee": 6049, "ularizing": 6050, "Queb": 6051, "Queen": 6052, "pularizing": 6053, "Quin": 6054, "acterizing": 6055, "Quebe": 6056, "Quebec": 6057, "racterizing": 6058, "opularizing": 6059, "Quit": 6060, "Qua": 6061, "Ques": 6062, "Quinn": 6063, "weighe": 6064, "popularizing": 6065, "Quak": 6066, "weighed": 6067, "Quest": 6068, "aracterizing": 6069, "Quie": 6070, "characterizing": 6071, "Quiet": 6072, "Quake": 6073, "Quar": 6074, "Quietu": 6075, "Quart": 6076, "Quah": 6077, "Quaker": 6078, "Quietus": 6079, "Quaho": 6080, "Qual": 6081, "Quahog": 6082, "Quali": 6083, "Quakers": 6084, "Quarte": 6085, "Quan": 6086, "Qualif": 6087, "Quas": 6088, "Quarter": 6089, "Quite": 6090, "Quarterback": 6091, "Qualify": 6092, "Quartet": 6093, "Qualifying": 6094, "Qualit": 6095, "Quasi": 6096, "Quito": 6097, "Quine": 6098, "weighs": 6099, "Quf": 6100, "Quality": 6101, "Quiney": 6102, "Qufu": 6103, "Quinc": 6104, "Quint": 6105, "Quince": 6106, "Quo": 6107, "Qur": 6108, "Quinta": 6109, "Quon": 6110, "Quot": 6111, "Quons": 6112, "Quarterl": 6113, "strengthene": 6114, "Quoting": 6115, "Quarterly": 6116, "strengthened": 6117, "Quonse": 6118, "Quonset": 6119, "ve": 6120, "ving": 6121, "\u00e9v": 6122, "venge": 6123, "r\u00e9v": 6124, "Pr\u00e9v": 6125, "Pr\u00e9va": 6126, "Jacksonv": 6127, "Pr\u00e9val": 6128, "Jacksonvi": 6129, "Jacksonvil": 6130, "vi": 6131, "Ever": 6132, "Eva": 6133, "e\u00f3n": 6134, "enging": 6135, "Le\u00f3n": 6136, "Everg": 6137, "lenging": 6138, "Every": 6139, "llenging": 6140, "Everywhere": 6141, "Everyth": 6142, "Jacksonvill": 6143, "Everything": 6144, "Evergl": 6145, "viving": 6146, "Evo": 6147, "Evit": 6148, "Even": 6149, "allenging": 6150, "Jacksonville": 6151, "challenging": 6152, "Evol": 6153, "Evening": 6154, "Evolu": 6155, "Evil": 6156, "rviving": 6157, "Evita": 6158, "urviving": 6159, "Evid": 6160, "Evolut": 6161, "Evergla": 6162, "eviving": 6163, "viv": 6164, "Everglad": 6165, "Surviving": 6166, "Aviv": 6167, "vivip": 6168, "vivid": 6169, "Evoluti": 6170, "surviving": 6171, "reviving": 6172, "vived": 6173, "Evolutio": 6174, "Evolution": 6175, "rvive": 6176, "vivipa": 6177, "Lviv": 6178, "urvive": 6179, "survive": 6180, "vivipar": 6181, "viviparo": 6182, "rviv": 6183, "evived": 6184, "viviparou": 6185, "urviv": 6186, "viviparous": 6187, "revived": 6188, "viva": 6189, "evive": 6190, "Surviv": 6191, "vival": 6192, "surviv": 6193, "revive": 6194, "survivo": 6195, "survivor": 6196, "Survivo": 6197, "Survivor": 6198, "vivo": 6199, "survivors": 6200, "evival": 6201, "Revival": 6202, "vivol": 6203, "vivolv": 6204, "revival": 6205, "avivolv": 6206, "lavivolv": 6207, "flavivolv": 6208, "flavivolva": 6209, "Evide": 6210, "flavivolvat": 6211, "Eviden": 6212, "Everglade": 6213, "Evidenc": 6214, "Everglades": 6215, "flavivolvata": 6216, "t\u00f3n": 6217, "t\u00f3ni": 6218, "i\u00f3n": 6219, "nt\u00f3ni": 6220, "Ant\u00f3ni": 6221, "si\u00f3n": 6222, "visi\u00f3n": 6223, "Ant\u00f3nio": 6224, "Evidence": 6225, "Evert": 6226, "ivisi\u00f3n": 6227, "Everto": 6228, "Event": 6229, "va": 6230, "Everyb": 6231, "erize": 6232, "Divisi\u00f3n": 6233, "Eventu": 6234, "terized": 6235, "cterized": 6236, "terize": 6237, "Everton": 6238, "orize": 6239, "thorize": 6240, "gorized": 6241, "uthorized": 6242, "theorized": 6243, "uthorize": 6244, "uterized": 6245, "cterize": 6246, "Everybo": 6247, "Events": 6248, "authorized": 6249, "puterized": 6250, "Everybod": 6251, "authorize": 6252, "Everybody": 6253, "mputerized": 6254, "acterized": 6255, "racterized": 6256, "omputerized": 6257, "Eventua": 6258, "computerized": 6259, "Eventual": 6260, "aracterized": 6261, "characterized": 6262, "Eventuall": 6263, "acterize": 6264, "Eventually": 6265, "racterize": 6266, "arized": 6267, "vo": 6268, "urized": 6269, "vy": 6270, "marized": 6271, "vE": 6272, "mmarized": 6273, "Kvy": 6274, "larized": 6275, "ummarized": 6276, "ularized": 6277, "Av": 6278, "iarized": 6279, "surized": 6280, "giarized": 6281, "pularized": 6282, "ssurized": 6283, "summarized": 6284, "Avon": 6285, "opularized": 6286, "popularized": 6287, "ovE": 6288, "lovE": 6289, "olarized": 6290, "Avt": 6291, "Aven": 6292, "polarized": 6293, "Avenu": 6294, "ulovE": 6295, "Aver": 6296, "Avto": 6297, "Aval": 6298, "Avtova": 6299, "Avery": 6300, "tulovE": 6301, "Avl": 6302, "aracterize": 6303, "characterize": 6304, "Avtovac": 6305, "itulovE": 6306, "Avr": 6307, "Avlo": 6308, "Avera": 6309, "Averag": 6310, "Avro": 6311, "oitulovE": 6312, "agiarized": 6313, "lagiarized": 6314, "noitulovE": 6315, "Kvya": 6316, "Avig": 6317, "voking": 6318, "plagiarized": 6319, "Kvyat": 6320, "Avign": 6321, "avy": 6322, "Avenue": 6323, "Navy": 6324, "vying": 6325, "Avigno": 6326, "Average": 6327, "Avignon": 6328, "Kavy": 6329, "essurized": 6330, "ressurized": 6331, "Kavya": 6332, "egorized": 6333, "pressurized": 6334, "tegorized": 6335, "Avloe": 6336, "ovoking": 6337, "Avloed": 6338, "nvoking": 6339, "rovoking": 6340, "ategorized": 6341, "Avalo": 6342, "provoking": 6343, "categorized": 6344, "invoking": 6345, "Avalon": 6346, "Avala": 6347, "Avalan": 6348, "Avia": 6349, "eavy": 6350, "Yvo": 6351, "Avalanch": 6352, "heavy": 6353, "Heavy": 6354, "Aviat": 6355, "Yvon": 6356, "Aviati": 6357, "Yvonn": 6358, "Aviatio": 6359, "navy": 6360, "Avalanche": 6361, "wavy": 6362, "Aviation": 6363, "Yvonne": 6364, "ravy": 6365, "dravy": 6366, "dravya": 6367, "zvo": 6368, "zvou": 6369, "zvous": 6370, "ezvous": 6371, "vol": 6372, "Avis": 6373, "ivy": 6374, "Sv": 6375, "volving": 6376, "volve": 6377, "dezvous": 6378, "volu": 6379, "Svay": 6380, "ndezvous": 6381, "volved": 6382, "rivy": 6383, "Privy": 6384, "volva": 6385, "volvem": 6386, "privy": 6387, "Involvem": 6388, "nvolvem": 6389, "volum": 6390, "involvem": 6391, "nvolved": 6392, "involved": 6393, "nvolving": 6394, "volut": 6395, "voluti": 6396, "involving": 6397, "volun": 6398, "volutio": 6399, "volunt": 6400, "volution": 6401, "nvolve": 6402, "involve": 6403, "Svan": 6404, "evolution": 6405, "Revolution": 6406, "Sval": 6407, "volume": 6408, "Svalb": 6409, "evolved": 6410, "Svalba": 6411, "endezvous": 6412, "rendezvous": 6413, "Svalbar": 6414, "evolve": 6415, "Revolve": 6416, "Svalbard": 6417, "involveme": 6418, "involvemen": 6419, "Revolver": 6420, "evolving": 6421, "involvement": 6422, "Involveme": 6423, "revolution": 6424, "volc": 6425, "Sves": 6426, "Svesh": 6427, "Involvemen": 6428, "volca": 6429, "Involvement": 6430, "volcan": 6431, "Sveshn": 6432, "Svea": 6433, "revolve": 6434, "volunte": 6435, "involves": 6436, "volcano": 6437, "Sveab": 6438, "Sveshni": 6439, "Sveshnik": 6440, "volcani": 6441, "Sveabo": 6442, "volunta": 6443, "voluntee": 6444, "evolves": 6445, "revolving": 6446, "volcanic": 6447, "volunteer": 6448, "voluntar": 6449, "voluntary": 6450, "Sveabor": 6451, "Sveshniko": 6452, "Sveshnikov": 6453, "Sveaborg": 6454, "voluntari": 6455, "revolver": 6456, "vok": 6457, "volunteers": 6458, "voluntaril": 6459, "voke": 6460, "voluntarily": 6461, "voked": 6462, "ovoke": 6463, "voc": 6464, "rovoke": 6465, "provoke": 6466, "voca": 6467, "evoke": 6468, "Ivo": 6469, "nvoked": 6470, "v.": 6471, "volt": 6472, "vocal": 6473, "invoked": 6474, "Ivor": 6475, "dvoca": 6476, "dvocat": 6477, "Ivory": 6478, "dvocac": 6479, "dvocating": 6480, "vocat": 6481, "vocab": 6482, "dvocacy": 6483, "vocati": 6484, "advocating": 6485, "vocative": 6486, "vocabu": 6487, "advocat": 6488, "vocabul": 6489, "vocatio": 6490, "advocacy": 6491, "advocate": 6492, "vocation": 6493, "vocabula": 6494, "advocated": 6495, "voll": 6496, "vocals": 6497, "ovocative": 6498, "vu": 6499, "evy": 6500, "Levy": 6501, "vul": 6502, "rovocative": 6503, "provocative": 6504, "vulg": 6505, "levy": 6506, "vocabular": 6507, "vocabulary": 6508, "vuln": 6509, "vulga": 6510, "evocative": 6511, "vulgar": 6512, "vulne": 6513, "vulner": 6514, "evu": 6515, "Revu": 6516, "vulnera": 6517, "vulnerab": 6518, "levu": 6519, "Revue": 6520, "llevu": 6521, "vulnerabl": 6522, "revu": 6523, "vulnerabi": 6524, "vulnerable": 6525, "vulnerabil": 6526, "revue": 6527, "vulnerabili": 6528, "ellevu": 6529, "Bellevu": 6530, "vulnerabilit": 6531, "vulnerability": 6532, "Bellevue": 6533, "vocationa": 6534, "vocational": 6535, "evocation": 6536, "volle": 6537, "nvy": 6538, "volley": 6539, "svoll": 6540, "vyn": 6541, "volleyb": 6542, "rvyn": 6543, "rsvoll": 6544, "volleyba": 6545, "envy": 6546, "volleybal": 6547, "orsvoll": 6548, "ervyn": 6549, "vulgari": 6550, "vk": 6551, "evokes": 6552, "revolutiona": 6553, "Korsvoll": 6554, "Mervyn": 6555, "volleyball": 6556, "vulgaris": 6557, "revolutionar": 6558, "avk": 6559, "Kavk": 6560, "revolutionary": 6561, "revolutionari": 6562, "Kavka": 6563, "je": 6564, "Kavkaz": 6565, "jevo": 6566, "jec": 6567, "ajevo": 6568, "revolutionarie": 6569, "ject": 6570, "revolutionaries": 6571, "rajevo": 6572, "jew": 6573, "arajevo": 6574, "jewe": 6575, "oject": 6576, "vaj": 6577, "Sarajevo": 6578, "jewel": 6579, "Inject": 6580, "ivaj": 6581, "Sivaj": 6582, "Sivaji": 6583, "roject": 6584, "jewell": 6585, "Injecte": 6586, "Project": 6587, "project": 6588, "Injected": 6589, "jewelle": 6590, "jeweller": 6591, "eject": 6592, "jewellery": 6593, "jewelled": 6594, "reject": 6595, "jectu": 6596, "njectu": 6597, "njectur": 6598, "onjectur": 6599, "dject": 6600, "conjectur": 6601, "djecti": 6602, "djective": 6603, "adjective": 6604, "conjecture": 6605, "conjectured": 6606, "ejecte": 6607, "jecto": 6608, "jewelr": 6609, "jewelry": 6610, "rejected": 6611, "ejected": 6612, "rejecting": 6613, "jecti": 6614, "njecti": 6615, "objector": 6616, "injecti": 6617, "jector": 6618, "rejectio": 6619, "jectory": 6620, "rejection": 6621, "injectio": 6622, "injection": 6623, "ajectory": 6624, "objectors": 6625, "rajectory": 6626, "jewels": 6627, "projectil": 6628, "trajectory": 6629, "projectio": 6630, "projectile": 6631, "rejects": 6632, "ja": 6633, "Ej": 6634, "Ejl": 6635, "jing": 6636, "projectiles": 6637, "projection": 6638, "uj": 6639, "Guja": 6640, "ujach": 6641, "Fuj": 6642, "puja": 6643, "Fuji": 6644, "nujach": 6645, "uji": 6646, "Gujar": 6647, "ujil": 6648, "ujill": 6649, "luj": 6650, "rujill": 6651, "Trujill": 6652, "Cluj": 6653, "Trujillo": 6654, "Gujara": 6655, "Gujarat": 6656, "anujach": 6657, "manujach": 6658, "amanujach": 6659, "Ramanujach": 6660, "Ramanujacha": 6661, "ji": 6662, "Ejle": 6663, "jam": 6664, "njing": 6665, "projections": 6666, "jiang": 6667, "Aj": 6668, "ijing": 6669, "Ejler": 6670, "Ramanujachar": 6671, "jih": 6672, "anjing": 6673, "jm": 6674, "jave": 6675, "eijing": 6676, "njiang": 6677, "Yanjing": 6678, "Beijing": 6679, "Ramanujachary": 6680, "javel": 6681, "injiang": 6682, "ojiang": 6683, "Xinjiang": 6684, "uojiang": 6685, "ianjing": 6686, "Tuojiang": 6687, "Bianjing": 6688, "javeli": 6689, "javelin": 6690, "Tuojiango": 6691, "jiha": 6692, "jihad": 6693, "Tuojiangos": 6694, "Ramanujacharya": 6695, "Nja": 6696, "Tuojiangosa": 6697, "jaw": 6698, "Tuojiangosau": 6699, "jac": 6700, "aj": 6701, "njam": 6702, "Rajam": 6703, "Kaja": 6704, "Maje": 6705, "Raje": 6706, "Raj": 6707, "Kaj": 6708, "Taj": 6709, "Baja": 6710, "Saji": 6711, "kaji": 6712, "Caja": 6713, "kajim": 6714, "Kajal": 6715, "Cajal": 6716, "Sajid": 6717, "djac": 6718, "raja": 6719, "Traja": 6720, "jacu": 6721, "Tuojiangosaur": 6722, "Tuojiangosauru": 6723, "jacul": 6724, "Trajan": 6725, "raj": 6726, "njami": 6727, "jag": 6728, "Rajamo": 6729, "adjac": 6730, "Rajamou": 6731, "njamm": 6732, "jagu": 6733, "jagg": 6734, "Rajamoul": 6735, "Tuojiangosaurus": 6736, "njamin": 6737, "akajim": 6738, "Nakajim": 6739, "Rajamouli": 6740, "Nakajima": 6741, "jagua": 6742, "jaguar": 6743, "jacula": 6744, "jaculat": 6745, "araj": 6746, "Majes": 6747, "Rajee": 6748, "Rajeev": 6749, "haraj": 6750, "Majel": 6751, "Majest": 6752, "Majesty": 6753, "taraja": 6754, "iraja": 6755, "hiraja": 6756, "jaculati": 6757, "ataraja": 6758, "Nataraja": 6759, "shiraja": 6760, "jaculatio": 6761, "aharaj": 6762, "adjace": 6763, "Maharaj": 6764, "adjacen": 6765, "adjacent": 6766, "jaculation": 6767, "enjamin": 6768, "Benjamin": 6769, "jagge": 6770, "jagged": 6771, "eshiraja": 6772, "Keshiraja": 6773, "ejaculation": 6774, "enjamm": 6775, "zenjamm": 6776, "tzenjamm": 6777, "atzenjamm": 6778, "Katzenjamm": 6779, "Katzenjamme": 6780, "Rajas": 6781, "jab": 6782, "rj": 6783, "Rajasth": 6784, "urj": 6785, "Katzenjammer": 6786, "rjea": 6787, "njab": 6788, "ej": 6789, "zej": 6790, "Leje": 6791, "Burj": 6792, "Teja": 6793, "Sejm": 6794, "bejewelled": 6795, "unjab": 6796, "Punjab": 6797, "Lejeu": 6798, "leja": 6799, "ijm": 6800, "jabs": 6801, "Nijm": 6802, "Aleja": 6803, "Alejan": 6804, "Alejand": 6805, "Lejeun": 6806, "rejoining": 6807, "rejoin": 6808, "rzej": 6809, "drzej": 6810, "Alejandr": 6811, "Rajastha": 6812, "erjea": 6813, "ndrzej": 6814, "Andrzej": 6815, "nerjea": 6816, "Rajasthan": 6817, "Alejandro": 6818, "anerjea": 6819, "Nijme": 6820, "Banerjea": 6821, "Nijmeg": 6822, "Lejeune": 6823, "Punjabi": 6824, "Fujia": 6825, "nje": 6826, "Fujian": 6827, "inje": 6828, "Nijmege": 6829, "jet": 6830, "Linje": 6831, "Linjef": 6832, "binje": 6833, "Nijmegen": 6834, "Linjefl": 6835, "sinje": 6836, "anje": 6837, "vesinje": 6838, "Sanje": 6839, "Linjefly": 6840, "Linjeflyg": 6841, "ranje": 6842, "Sanjee": 6843, "Sanjeev": 6844, "iranje": 6845, "Chiranje": 6846, "Chiranjee": 6847, "Chiranjeevi": 6848, "evesinje": 6849, "Nevesinje": 6850, "ebinje": 6851, "jetp": 6852, "rebinje": 6853, "jetpo": 6854, "evolt": 6855, "Trebinje": 6856, "revolt": 6857, "jetpor": 6858, "volta": 6859, "eizing": 6860, "val": 6861, "voltag": 6862, "Evalu": 6863, "jetport": 6864, "seizing": 6865, "Evald": 6866, "volts": 6867, "dizing": 6868, "Evalua": 6869, "voltage": 6870, "Evaluat": 6871, "idizing": 6872, "sizing": 6873, "Viva": 6874, "valu": 6875, "Angele": 6876, "xidizing": 6877, "Evaluati": 6878, "Angeles": 6879, "asizing": 6880, "Angelo": 6881, "value": 6882, "hasizing": 6883, "Angelou": 6884, "Evaluatio": 6885, "phasizing": 6886, "Evaluation": 6887, "oxidizing": 6888, "valua": 6889, "ival": 6890, "adjectives": 6891, "sacke": 6892, "quival": 6893, "valuab": 6894, "mphasizing": 6895, "sacked": 6896, "ssack": 6897, "valuabl": 6898, "valuat": 6899, "sacks": 6900, "ossack": 6901, "equival": 6902, "Cossacks": 6903, "Cossack": 6904, "valuating": 6905, "valuable": 6906, "equivale": 6907, "equivalen": 6908, "evaluat": 6909, "equivalent": 6910, "emphasizing": 6911, "Oval": 6912, "rival": 6913, "equivalenc": 6914, "tival": 6915, "evaluate": 6916, "rrival": 6917, "chival": 6918, "evaluati": 6919, "stival": 6920, "evaluated": 6921, "arrival": 6922, "equivalence": 6923, "rchival": 6924, "evaluatio": 6925, "bival": 6926, "estival": 6927, "Festival": 6928, "mbival": 6929, "festival": 6930, "evaluation": 6931, "ambival": 6932, "archival": 6933, "nival": 6934, "ambivale": 6935, "dival": 6936, "ambivalen": 6937, "rnival": 6938, "cival": 6939, "ambivalent": 6940, "arnival": 6941, "divale": 6942, "Carnival": 6943, "carnival": 6944, "divalen": 6945, "rcival": 6946, "enjoye": 6947, "enjoyed": 6948, "divalent": 6949, "ercival": 6950, "enjoying": 6951, "Percival": 6952, "bucke": 6953, "bucket": 6954, "bucks": 6955, "rbucks": 6956, "ex": 6957, "YP": 6958, "BYP": 6959, "YPM": 6960, "Tex": 6961, "Mex": 6962, "nvex": 6963, "rthex": 6964, "x16": 6965, "arbucks": 6966, "tarbucks": 6967, "Mexi": 6968, "onvex": 6969, "arthex": 6970, "Starbucks": 6971, "Mexic": 6972, "convex": 6973, "narthex": 6974, "Texa": 6975, "Mexico": 6976, "ix": 6977, "Nex": 6978, "expe": 6979, "Nix": 6980, "Six": 6981, "Text": 6982, "Texas": 6983, "Sixth": 6984, "Next": 6985, "Nixo": 6986, "Mexica": 6987, "mix": 6988, "ixth": 6989, "Mexican": 6990, "sixth": 6991, "Nixon": 6992, "Mix": 6993, "Nexo": 6994, "mixing": 6995, "Mixing": 6996, "Nexon": 6997, "six": 6998, "expec": 6999, "Fix": 7000, "Dix": 7001, "expect": 7002, "expecting": 7003, "fix": 7004, "exper": 7005, "tFix": 7006, "Dixi": 7007, "Texts": 7008, "itFix": 7009, "Dixo": 7010, "HitFix": 7011, "Dixon": 7012, "experi": 7013, "Fixe": 7014, "Fixed": 7015, "expert": 7016, "Dixie": 7017, "exped": 7018, "experim": 7019, "Hix": 7020, "expedi": 7021, "expen": 7022, "experie": 7023, "expel": 7024, "expedit": 7025, "experien": 7026, "expens": 7027, "experime": 7028, "experienc": 7029, "expend": 7030, "expell": 7031, "experimen": 7032, "expediti": 7033, "experiment": 7034, "expeditio": 7035, "expensi": 7036, "expelle": 7037, "expensive": 7038, "expelled": 7039, "expedition": 7040, "experimenting": 7041, "expense": 7042, "expedite": 7043, "expedited": 7044, "experience": 7045, "experiencing": 7046, "expecte": 7047, "experienced": 7048, "ox": 7049, "Fox": 7050, "Rox": 7051, "oxx": 7052, "expected": 7053, "yoxx": 7054, "Box": 7055, "Boxing": 7056, "box": 7057, "boxing": 7058, "Sox": 7059, "ayoxx": 7060, "rayoxx": 7061, "Cox": 7062, "Roxa": 7063, "Krayoxx": 7064, "Roxb": 7065, "Roxy": 7066, "Roxbu": 7067, "Roxas": 7068, "oxi": 7069, "oxim": 7070, "fox": 7071, "Roxbur": 7072, "Roxbury": 7073, "oxy": 7074, "oxyg": 7075, "Tox": 7076, "roxim": 7077, "oxid": 7078, "proxim": 7079, "oxic": 7080, "oxym": 7081, "Toxt": 7082, "pproxim": 7083, "noxy": 7084, "Approxim": 7085, "proximi": 7086, "noxyn": 7087, "toxic": 7088, "oxymo": 7089, "doxic": 7090, "proximit": 7091, "oxymor": 7092, "onoxyn": 7093, "proximity": 7094, "nonoxyn": 7095, "oxymoro": 7096, "oxymoron": 7097, "nonoxyno": 7098, "toxi": 7099, "poxi": 7100, "nonoxynol": 7101, "toxif": 7102, "approxim": 7103, "ypoxi": 7104, "toxifi": 7105, "toxin": 7106, "approxima": 7107, "hypoxi": 7108, "approximat": 7109, "toxins": 7110, "Approxima": 7111, "Approximat": 7112, "aoxing": 7113, "Shaoxing": 7114, "hypoxia": 7115, "adoxic": 7116, "radoxic": 7117, "aradoxic": 7118, "paradoxic": 7119, "paradoxica": 7120, "dox": 7121, "approximate": 7122, "paradoxical": 7123, "approximatel": 7124, "odox": 7125, "Approximate": 7126, "thodox": 7127, "approximately": 7128, "Approximatel": 7129, "adox": 7130, "epoxid": 7131, "Approximately": 7132, "rthodox": 7133, "Orthodox": 7134, "radox": 7135, "epoxide": 7136, "epoxides": 7137, "orthodox": 7138, "aradox": 7139, "oxyge": 7140, "paradox": 7141, "oxygen": 7142, "etoxifi": 7143, "detoxifi": 7144, "detoxifie": 7145, "detoxified": 7146, "Toxte": 7147, "northodox": 7148, "Toxteth": 7149, "unorthodox": 7150, "oxide": 7151, "cox": 7152, "ax": 7153, "Max": 7154, "Tax": 7155, "lcox": 7156, "Sax": 7157, "Ax": 7158, "ilcox": 7159, "Wilcox": 7160, "ux": 7161, "Saxo": 7162, "max": 7163, "Oax": 7164, "Saxon": 7165, "maxi": 7166, "oxida": 7167, "Nx": 7168, "Nxf": 7169, "maxim": 7170, "oxidat": 7171, "imax": 7172, "Oaxa": 7173, "Lax": 7174, "Taxo": 7175, "Nxf2": 7176, "maximu": 7177, "Oaxac": 7178, "limax": 7179, "climax": 7180, "maximum": 7181, "maxil": 7182, "oxidati": 7183, "Taxon": 7184, "Oaxaca": 7185, "maxill": 7186, "maximus": 7187, "Taxono": 7188, "Taxonom": 7189, "oxidatio": 7190, "Laxa": 7191, "Taxonomy": 7192, "oxidation": 7193, "maxilla": 7194, "Jax": 7195, "Dax": 7196, "Dx": 7197, "emaxilla": 7198, "Axi": 7199, "lux": 7200, "Wax": 7201, "EDx": 7202, "flux": 7203, "Axis": 7204, "remaxilla": 7205, "TEDx": 7206, "premaxilla": 7207, "luxu": 7208, "aemaxilla": 7209, "Axe": 7210, "Axel": 7211, "luxur": 7212, "luxury": 7213, "raemaxilla": 7214, "elux": 7215, "Delux": 7216, "praemaxilla": 7217, "delux": 7218, "luxuri": 7219, "luxurio": 7220, "deluxe": 7221, "luxuriou": 7222, "Deluxe": 7223, "luxurious": 7224, "praemaxillae": 7225, "premaxillar": 7226, "nflux": 7227, "Taxi": 7228, "tax": 7229, "oux": 7230, "expecta": 7231, "Doux": 7232, "premaxillary": 7233, "influx": 7234, "expectat": 7235, "expectati": 7236, "premaxillari": 7237, "expectan": 7238, "expectatio": 7239, "expectanc": 7240, "expectation": 7241, "ioux": 7242, "lax": 7243, "premaxillarie": 7244, "Sioux": 7245, "expectancy": 7246, "moux": 7247, "laxy": 7248, "imoux": 7249, "premaxillaries": 7250, "roux": 7251, "Limoux": 7252, "Theroux": 7253, "expectations": 7254, "alaxy": 7255, "Cax": 7256, "laxing": 7257, "Galaxy": 7258, "galaxy": 7259, "Caxt": 7260, "elaxing": 7261, "flax": 7262, "relaxing": 7263, "Caxto": 7264, "fax": 7265, "experts": 7266, "xe": 7267, "Maxw": 7268, "nix": 7269, "Enix": 7270, "xe6": 7271, "pixe": 7272, "fxe6": 7273, "pixel": 7274, "fixed": 7275, "laxed": 7276, "Mixed": 7277, "exec": 7278, "execu": 7279, "mixed": 7280, "Exec": 7281, "foxes": 7282, "Execu": 7283, "execut": 7284, "taxes": 7285, "Execut": 7286, "Foxes": 7287, "Caxton": 7288, "Executi": 7289, "oxen": 7290, "Executive": 7291, "flaxen": 7292, "xen": 7293, "mixes": 7294, "Exet": 7295, "llax": 7296, "executi": 7297, "elaxed": 7298, "executive": 7299, "xes": 7300, "lexes": 7301, "xess": 7302, "plexes": 7303, "sexes": 7304, "nxess": 7305, "relaxed": 7306, "mplexes": 7307, "mixer": 7308, "Exer": 7309, "Exerc": 7310, "boxer": 7311, "executio": 7312, "Exerci": 7313, "execution": 7314, "omplexes": 7315, "complexes": 7316, "Exercis": 7317, "xeno": 7318, "anxess": 7319, "Lanxess": 7320, "xenon": 7321, "rxen": 7322, "allax": 7323, "rallax": 7324, "rxena": 7325, "exem": 7326, "execute": 7327, "exemp": 7328, "executed": 7329, "rxenat": 7330, "exer": 7331, "arallax": 7332, "Exete": 7333, "parallax": 7334, "exerc": 7335, "exed": 7336, "exert": 7337, "exerci": 7338, "nexed": 7339, "Exeter": 7340, "exempl": 7341, "Exercise": 7342, "exempt": 7343, "exercis": 7344, "nnexed": 7345, "exempli": 7346, "Maxwe": 7347, "exemplif": 7348, "Maxwel": 7349, "exercising": 7350, "annexed": 7351, "Maxwell": 7352, "exemplifi": 7353, "exempla": 7354, "exercise": 7355, "exemplar": 7356, "exemplifie": 7357, "exemplary": 7358, "exemplified": 7359, "erxenat": 7360, "perxenat": 7361, "exemplifies": 7362, "perxenate": 7363, "fixt": 7364, "Sx": 7365, "fixtu": 7366, "fixing": 7367, "Sxs": 7368, "nx": 7369, "rix": 7370, "laxi": 7371, "exercised": 7372, "emixes": 7373, "Prix": 7374, "Brix": 7375, "yx": 7376, "Sxst": 7377, "remixes": 7378, "pyx": 7379, "Brixt": 7380, "pyxi": 7381, "fixtur": 7382, "lix": 7383, "trix": 7384, "drix": 7385, "flix": 7386, "pyxis": 7387, "pix": 7388, "wix": 7389, "tflix": 7390, "ndrix": 7391, "opyxis": 7392, "nwix": 7393, "oix": 7394, "roix": 7395, "Brixto": 7396, "xg": 7397, "lpix": 7398, "laxa": 7399, "xg4": 7400, "Croix": 7401, "hxg4": 7402, "laxat": 7403, "pixi": 7404, "Brixton": 7405, "olpix": 7406, "anwix": 7407, "Colpix": 7408, "tanwix": 7409, "laxati": 7410, "atrix": 7411, "Stanwix": 7412, "Matrix": 7413, "matrix": 7414, "laxatio": 7415, "alaxi": 7416, "fixture": 7417, "galaxi": 7418, "laxation": 7419, "eopyxis": 7420, "Geopyxis": 7421, "pixie": 7422, "etflix": 7423, "Netflix": 7424, "elix": 7425, "Felix": 7426, "helix": 7427, "elaxation": 7428, "Relaxation": 7429, "elixi": 7430, "endrix": 7431, "Hendrix": 7432, "relaxation": 7433, "elixir": 7434, "Sxste": 7435, "galaxie": 7436, "fixtures": 7437, "exempti": 7438, "rfax": 7439, "ifax": 7440, "lifax": 7441, "irfax": 7442, "galaxies": 7443, "exemptio": 7444, "enix": 7445, "exemption": 7446, "oenix": 7447, "hoenix": 7448, "onix": 7449, "alifax": 7450, "Phoenix": 7451, "Halifax": 7452, "monix": 7453, "airfax": 7454, "nxi": 7455, "cx": 7456, "Ext": 7457, "Fairfax": 7458, "cxd": 7459, "rmonix": 7460, "anxi": 7461, "Exh": 7462, "ynx": 7463, "cxd4": 7464, "Lynx": 7465, "Shanxi": 7466, "Exha": 7467, "Exhal": 7468, "armonix": 7469, "onx": 7470, "Harmonix": 7471, "inx": 7472, "ronx": 7473, "Exhale": 7474, "Jinx": 7475, "Bronx": 7476, "hinx": 7477, "axi": 7478, "rox": 7479, "phinx": 7480, "Maxim": 7481, "taxiing": 7482, "droxide": 7483, "ydroxide": 7484, "troxide": 7485, "sphinx": 7486, "hydroxide": 7487, "Maxis": 7488, "Maximu": 7489, "pox": 7490, "Maximum": 7491, "lpox": 7492, "nox": 7493, "Maximi": 7494, "axis": 7495, "etroxide": 7496, "trox": 7497, "Knox": 7498, "mox": 7499, "Maximil": 7500, "llpox": 7501, "tetroxide": 7502, "Maximili": 7503, "imox": 7504, "nnox": 7505, "onoxide": 7506, "axia": 7507, "monoxide": 7508, "axial": 7509, "timox": 7510, "atrox": 7511, "rtimox": 7512, "allpox": 7513, "erox": 7514, "ferox": 7515, "urtimox": 7516, "mallpox": 7517, "ennox": 7518, "Maximilia": 7519, "oaxial": 7520, "Exti": 7521, "exercises": 7522, "exc": 7523, "Lennox": 7524, "furtimox": 7525, "coaxial": 7526, "smallpox": 7527, "Maximilian": 7528, "ifurtimox": 7529, "Extin": 7530, "Maximilie": 7531, "Extr": 7532, "ext": 7533, "Extinc": 7534, "Maximilien": 7535, "Extinct": 7536, "nifurtimox": 7537, "Exte": 7538, "exh": 7539, "Extra": 7540, "Extincti": 7541, "Exten": 7542, "Extre": 7543, "Extrem": 7544, "Extens": 7545, "Exter": 7546, "Extinctio": 7547, "exhi": 7548, "picke": 7549, "exhib": 7550, "picked": 7551, "Extensi": 7552, "Extern": 7553, "Extensive": 7554, "picket": 7555, "exhibi": 7556, "Extinction": 7557, "Externa": 7558, "External": 7559, "exhibit": 7560, "exha": 7561, "Extreme": 7562, "exhu": 7563, "exhum": 7564, "exhau": 7565, "ebanjo": 7566, "yebanjo": 7567, "exhal": 7568, "exhaus": 7569, "exhume": 7570, "Oyebanjo": 7571, "exhumed": 7572, "exhaust": 7573, "exhale": 7574, "exhaled": 7575, "exhausting": 7576, "stacke": 7577, "Exi": 7578, "stacked": 7579, "Exit": 7580, "Exa": 7581, "exhauste": 7582, "exhibiti": 7583, "Exam": 7584, "exhausted": 7585, "exhibitio": 7586, "Examp": 7587, "exhibition": 7588, "Exo": 7589, "exhausti": 7590, "Exampl": 7591, "Exod": 7592, "Exami": 7593, "exhaustio": 7594, "ealize": 7595, "jamm": 7596, "Exodu": 7597, "exhaustion": 7598, "Exodus": 7599, "Examin": 7600, "realized": 7601, "Examining": 7602, "realize": 7603, "Example": 7604, "Examples": 7605, "Examina": 7606, "jamme": 7607, "ualize": 7608, "ialized": 7609, "cialized": 7610, "jammed": 7611, "Examinat": 7612, "sualized": 7613, "visualized": 7614, "Examinati": 7615, "sualize": 7616, "rialized": 7617, "ecialized": 7618, "calized": 7619, "visualize": 7620, "pecialized": 7621, "ocalized": 7622, "localized": 7623, "specialized": 7624, "Examinatio": 7625, "erialized": 7626, "nalized": 7627, "engi": 7628, "ralize": 7629, "uralized": 7630, "tralize": 7631, "engin": 7632, "utralize": 7633, "turalized": 7634, "ntralized": 7635, "Examination": 7636, "serialized": 7637, "talized": 7638, "aturalized": 7639, "engine": 7640, "malized": 7641, "terialized": 7642, "italized": 7643, "naturalized": 7644, "entralized": 7645, "pitalized": 7646, "centralized": 7647, "rmalized": 7648, "aterialized": 7649, "eutralize": 7650, "Beng": 7651, "onalized": 7652, "talize": 7653, "materialized": 7654, "ionalized": 7655, "tionalized": 7656, "ialize": 7657, "ctionalized": 7658, "italize": 7659, "neutralize": 7660, "rialize": 7661, "ormalized": 7662, "Benga": 7663, "spitalized": 7664, "Deng": 7665, "pitalize": 7666, "formalized": 7667, "Bengal": 7668, "ictionalized": 7669, "ospitalized": 7670, "apitalized": 7671, "Denge": 7672, "Dengek": 7673, "hospitalized": 7674, "fictionalized": 7675, "capitalized": 7676, "apitalize": 7677, "erialize": 7678, "inalized": 7679, "finalized": 7680, "capitalize": 7681, "terialize": 7682, "Dengeki": 7683, "enalized": 7684, "Meng": 7685, "penalized": 7686, "aterialize": 7687, "Mengd": 7688, "leng": 7689, "enginee": 7690, "materialize": 7691, "lleng": 7692, "engineer": 7693, "engineering": 7694, "alleng": 7695, "challeng": 7696, "Challeng": 7697, "challenge": 7698, "Challenge": 7699, "Mengde": 7700, "engineers": 7701, "enga": 7702, "engag": 7703, "Mengden": 7704, "Leng": 7705, "engaging": 7706, "renga": 7707, "rengar": 7708, "engage": 7709, "rengari": 7710, "engaged": 7711, "engagem": 7712, "rengaria": 7713, "engageme": 7714, "engagemen": 7715, "erengaria": 7716, "Berengaria": 7717, "engagement": 7718, "Lenge": 7719, "seng": 7720, "Lenged": 7721, "feng": 7722, "isengage": 7723, "sseng": 7724, "disengage": 7725, "heng": 7726, "ifeng": 7727, "ssenge": 7728, "ssenger": 7729, "aifeng": 7730, "Lengede": 7731, "Kaifeng": 7732, "assenger": 7733, "passenger": 7734, "Passenger": 7735, "passengers": 7736, "essenger": 7737, "engr": 7738, "messenger": 7739, "hengri": 7740, "hengrin": 7741, "ohengrin": 7742, "engu": 7743, "engra": 7744, "sheng": 7745, "engraving": 7746, "Lohengrin": 7747, "engrave": 7748, "usheng": 7749, "rengu": 7750, "rusheng": 7751, "erengu": 7752, "merengu": 7753, "merengue": 7754, "eheng": 7755, "neheng": 7756, "oneheng": 7757, "toneheng": 7758, "Stoneheng": 7759, "Stonehenge": 7760, "engraved": 7761, "engraver": 7762, "enge": 7763, "engines": 7764, "ieng": 7765, "engen": 7766, "wicke": 7767, "ly": 7768, "Rieng": 7769, "lightly": 7770, "overwhelmingly": 7771, "horizontally": 7772, "strongly": 7773, "highly": 7774, "expertly": 7775, "wrongly": 7776, "Evely": 7777, "engend": 7778, "expectedly": 7779, "ightly": 7780, "explosively": 7781, "tightly": 7782, "nexpectedly": 7783, "unexpectedly": 7784, "Evelyn": 7785, "slightly": 7786, "wicket": 7787, "vocally": 7788, "engende": 7789, "engender": 7790, "wicked": 7791, "dwicke": 7792, "wickets": 7793, "Oly": 7794, "ivocally": 7795, "voy": 7796, "quivocally": 7797, "Olym": 7798, "rdwicke": 7799, "nvoy": 7800, "lengthy": 7801, "Olymp": 7802, "onvoy": 7803, "ardwicke": 7804, "equivocally": 7805, "Hardwicke": 7806, "convoy": 7807, "Olympi": 7808, "nequivocally": 7809, "Convoy": 7810, "unequivocally": 7811, "Olympu": 7812, "Olympic": 7813, "nvoys": 7814, "Olympus": 7815, "Olympia": 7816, "envoy": 7817, "Olympian": 7818, "voya": 7819, "Nicky": 7820, "lly": 7821, "voyag": 7822, "avoy": 7823, "Savoy": 7824, "voyage": 7825, "ally": 7826, "squarely": 7827, "experimentally": 7828, "wholly": 7829, "ully": 7830, "Gully": 7831, "fully": 7832, "llyw": 7833, "Fully": 7834, "Sully": 7835, "cully": 7836, "Scully": 7837, "gully": 7838, "ullying": 7839, "bullying": 7840, "ollyw": 7841, "Hollyw": 7842, "Bollyw": 7843, "Bollywo": 7844, "Bollywoo": 7845, "Bollywood": 7846, "Hollywo": 7847, "ually": 7848, "exually": 7849, "Hollywoo": 7850, "equally": 7851, "Hollywood": 7852, "sexually": 7853, "tually": 7854, "cally": 7855, "vely": 7856, "ively": 7857, "ically": 7858, "ovely": 7859, "tively": 7860, "ctually": 7861, "lovely": 7862, "ctively": 7863, "sively": 7864, "Lively": 7865, "lively": 7866, "usively": 7867, "ocally": 7868, "ntually": 7869, "pically": 7870, "actually": 7871, "ventually": 7872, "ypically": 7873, "lusively": 7874, "exclusively": 7875, "Typically": 7876, "locally": 7877, "clusively": 7878, "typically": 7879, "opically": 7880, "rtually": 7881, "eventually": 7882, "atively": 7883, "virtually": 7884, "copically": 7885, "utually": 7886, "latively": 7887, "nclusively": 7888, "itively": 7889, "mutually": 7890, "gatively": 7891, "ptively": 7892, "utively": 7893, "itually": 7894, "scopically": 7895, "bitually": 7896, "cutively": 7897, "sitively": 7898, "oscopically": 7899, "titively": 7900, "roscopically": 7901, "croscopically": 7902, "ritually": 7903, "ositively": 7904, "positively": 7905, "icroscopically": 7906, "microscopically": 7907, "iritually": 7908, "onclusively": 7909, "abitually": 7910, "egatively": 7911, "habitually": 7912, "piritually": 7913, "conclusively": 7914, "negatively": 7915, "elatively": 7916, "spiritually": 7917, "relatively": 7918, "ecutively": 7919, "secutively": 7920, "etitively": 7921, "petitively": 7922, "nsecutively": 7923, "eptively": 7924, "mpetitively": 7925, "ceptively": 7926, "onsecutively": 7927, "ectively": 7928, "sually": 7929, "fically": 7930, "nsively": 7931, "thickly": 7932, "Usually": 7933, "usually": 7934, "consecutively": 7935, "pectively": 7936, "Unusually": 7937, "visually": 7938, "fectively": 7939, "ifically": 7940, "spectively": 7941, "dually": 7942, "ompetitively": 7943, "vidually": 7944, "ffectively": 7945, "competitively": 7946, "cifically": 7947, "lectively": 7948, "ividually": 7949, "nually": 7950, "ssively": 7951, "adually": 7952, "espectively": 7953, "llectively": 7954, "dividually": 7955, "tifically": 7956, "radually": 7957, "gradually": 7958, "Gradually": 7959, "ndividually": 7960, "individually": 7961, "ntifically": 7962, "respectively": 7963, "ollectively": 7964, "collectively": 7965, "nnually": 7966, "isively": 7967, "ensively": 7968, "extensively": 7969, "cisively": 7970, "lsively": 7971, "annually": 7972, "inually": 7973, "ecifically": 7974, "pecifically": 7975, "ulsively": 7976, "tensively": 7977, "pulsively": 7978, "Specifically": 7979, "tinually": 7980, "ntensively": 7981, "mpulsively": 7982, "intensively": 7983, "specifically": 7984, "ntinually": 7985, "anually": 7986, "effectively": 7987, "manually": 7988, "impulsively": 7989, "ontinually": 7990, "entifically": 7991, "continually": 7992, "ientifically": 7993, "electively": 7994, "cientifically": 7995, "selectively": 7996, "ecisively": 7997, "decisively": 7998, "scientifically": 7999, "eceptively": 8000, "actively": 8001, "deceptively": 8002, "nctively": 8003, "essively": 8004, "swick": 8005, "ratively": 8006}