{"<pad>": 0, "<cls>": 1, "<sep>": 2, "<mask>": 3, "<unk>": 4, "u": 5, "I": 6, "\u00e0": 7, "\u968a": 8, "\u043a": 9, "\u00eb": 10, "*": 11, "\u6a5f": 12, "z": 13, "\u00ec": 14, "\u0173": 15, "\u2153": 16, "\u10d9": 17, "\u00b2": 18, "\u0111": 19, "\u010d": 20, "\u30ea": 21, "\u0107": 22, "P": 23, "Y": 24, "V": 25, "\u0e48": 26, "\u00e7": 27, "|": 28, "\u2026": 29, "\u10ef": 30, "\u30c3": 31, "\u0430": 32, "\u0141": 33, "\u00ed": 34, "\u00e9": 35, "C": 36, ":": 37, "\u201d": 38, "w": 39, "q": 40, "\u30d7": 41, "\u30fb": 42, "<": 43, "O": 44, "\u00c6": 45, "\u0e15": 46, "\u30c8": 47, "\u00b5": 48, "\u7a7a": 49, "\u0647": 50, "f": 51, "\u03b3": 52, "x": 53, "j": 54, "\u0303": 55, "\u10ee": 56, "\u10d2": 57, "\u03bc": 58, "@": 59, "\u30ad": 60, "\u2044": 61, "\u653b": 62, "\u1ecb": 63, "2": 64, "\u0e25": 65, "\u0e4c": 66, "7": 67, "K": 68, "E": 69, "\u201c": 70, "\u015f": 71, "\u00c5": 72, "\u30a1": 73, "\u30eb": 74, "^": 75, "J": 76, "\u10e3": 77, "F": 78, "\u706b": 79, "\u52d5": 80, "\u5834": 81, "B": 82, "\u00d8": 83, "\u1ec5": 84, "\u3009": 85, "\u00f1": 86, "\ufeff": 87, "\u1e6f": 88, "t": 89, "h": 90, ",": 91, "+": 92, "\u016b": 93, "\u0110": 94, ">": 95, "\u5927": 96, "\u3008": 97, "\u10e1": 98, "\u00a5": 99, "\u10fb": 100, ")": 101, "\u1ec7": 102, "(": 103, "\u00ee": 104, "\u00b7": 105, "\u0117": 106, "4": 107, "N": 108, "U": 109, "~": 110, "\u00fc": 111, "\u00dc": 112, "e": 113, "\u015b": 114, "\u10e0": 115, "D": 116, "\u01a1": 117, "Q": 118, "\u00f3": 119, "\u00d7": 120, "\u00f4": 121, "\u10ec": 122, "\u043e": 123, "-": 124, "\u0e07": 125, "\uff5e": 126, "\u1e63": 127, "\u306e": 128, "\u0442": 129, "\u02bf": 130, "\u6bbb": 131, "\u201e": 132, "\u10dd": 133, "\u00de": 134, "\u0432": 135, "M": 136, "\u30b9": 137, "\u30f4": 138, "0": 139, ";": 140, "\u00d6": 141, "L": 142, "\u062d": 143, "\u00da": 144, "1": 145, "\u00f8": 146, "\u094d": 147, "\u014d": 148, "\u0644": 149, "\u0435": 150, "l": 151, "c": 152, "\u0101": 153, "=": 154, "\u0e23": 155, "3": 156, "\u0e31": 157, "k": 158, "\u00b3": 159, "\u00a7": 160, "\u0142": 161, "\u792e": 162, "\u2020": 163, "\u01b0": 164, "\u2014": 165, "\u00ce": 166, "\u1edb": 167, ".": 168, "\u2609": 169, "6": 170, "R": 171, "\u014c": 172, "\u1ea5": 173, "\u10ea": 174, "\u2033": 175, "\u2192": 176, "\u0441": 177, "\u00e8": 178, "\u00e5": 179, "'": 180, "y": 181, "A": 182, "W": 183, "\u0627": 184, "#": 185, "d": 186, "\u00b1": 187, "[": 188, "\u00ea": 189, "\u00c1": 190, "\u017e": 191, "\u1ea3": 192, "\u012b": 193, "\u30e5": 194, "\u10d6": 195, "9": 196, "\u00e4": 197, "\u2011": 198, "/": 199, "?": 200, "\u2264": 201, "\u03b1": 202, "\u0646": 203, "X": 204, "\u266f": 205, "\u1e25": 206, "\u2013": 207, "\u20b9": 208, "\u0144": 209, "\u00e1": 210, "\u02bb": 211, "b": 212, "\u1eaf": 213, "\u0103": 214, "\u017b": 215, "8": 216, "r": 217, "G": 218, "\u2212": 219, "%": 220, "\u00f2": 221, "5": 222, "S": 223, "\u10d8": 224, "\u1e6d": 225, "\u00e2": 226, "s": 227, "i": 228, "a": 229, "&": 230, "\u1e43": 231, "g": 232, "\u0e32": 233, "\u1e45": 234, "\u30a2": 235, "\u0421": 236, "]": 237, "\u0e13": 238, "\u1ef3": 239, "\u6226": 240, "H": 241, "\u00a3": 242, "\u266d": 243, "\u0e22": 244, "v": 245, "\u20a4": 246, "\u0e34": 247, "\u00a1": 248, "\u10d5": 249, "Z": 250, "p": 251, "\u044f": 252, "\u10eb": 253, "\u00f6": 254, "\u2032": 255, "\u00e3": 256, "T": 257, " ": 258, "\u00c9": 259, "\u1eed": 260, "\u2018": 261, "\u0161": 262, "\u0e21": 263, "\u00fb": 264, "\u00bd": 265, "\\": 266, "\u20ac": 267, "\u03b2": 268, "\u2019": 269, "\u2154": 270, "n": 271, "m": 272, "\u0100": 273, "$": 274, "`": 275, "\u1ea7": 276, "\u03ba": 277, "\u00cd": 278, "\u00b0": 279, "\u0e01": 280, "\u10d3": 281, "!": 282, "\"": 283, "\u00fa": 284, "o": 285, "\u0635": 286, "_": 287, "\u6226\u5834": 288, "\u6226\u5834\u306e": 289, "\u6226\u5834\u306e\u30f4": 290, "\u6226\u5834\u306e\u30f4\u30a1": 291, "\u6226\u5834\u306e\u30f4\u30a1\u30eb": 292, "\u6226\u5834\u306e\u30f4\u30a1\u30eb\u30ad": 293, "\u6226\u5834\u306e\u30f4\u30a1\u30eb\u30ad\u30e5": 294, "\u6226\u5834\u306e\u30f4\u30a1\u30eb\u30ad\u30e5\u30ea": 295, "\u6226\u5834\u306e\u30f4\u30a1\u30eb\u30ad\u30e5\u30ea\u30a2": 296, "\u0e01\u0e31": 297, "\u0e01\u0e31\u0e25": 298, "\u0e01\u0e31\u0e25\u0e22": 299, "\u0e01\u0e31\u0e25\u0e22\u0e32": 300, "\u0e01\u0e31\u0e25\u0e22\u0e32\u0e13": 301, "\u0e01\u0e31\u0e25\u0e22\u0e32\u0e13\u0e21": 302, "\u0e01\u0e31\u0e25\u0e22\u0e32\u0e13\u0e21\u0e34": 303, "\u0e01\u0e31\u0e25\u0e22\u0e32\u0e13\u0e21\u0e34\u0e15": 304, "\u0e01\u0e31\u0e25\u0e22\u0e32\u0e13\u0e21\u0e34\u0e15\u0e23": 305, "\u30b9\u30c8": 306, "\u30b9\u30c8\u30c3": 307, "\u30b9\u30c8\u30c3\u30d7": 308, "\u653b\u6bbb": 309, "\u653b\u6bbb\u6a5f": 310, "\u653b\u6bbb\u6a5f\u52d5": 311, "\u653b\u6bbb\u6a5f\u52d5\u968a": 312, "\u0421\u043e": 313, "\u0421\u043e\u0432": 314, "\u0421\u043e\u0432\u0435": 315, "\u0421\u043e\u0432\u0435\u0442": 316, "\u0421\u043e\u0432\u0435\u0442\u0441": 317, "\u0421\u043e\u0432\u0435\u0442\u0441\u043a": 318, "\u0421\u043e\u0432\u0435\u0442\u0441\u043a\u0430": 319, "\u0421\u043e\u0432\u0435\u0442\u0441\u043a\u0430\u044f": 320, "\u062d\u0635": 321, "\u062d\u0635\u0646": 322, "\u706b\u792e": 323, "\u5927\u7a7a": 324, "\u0627\u0644": 325, "\u0627\u0644\u0644": 326, "\u0627\u0644\u0644\u0647": 327, "\u1e6d\u1e6d": 328, "\u01b0\u1edb": 329, "\u0110\u00ec": 330, "\u01b0\u01a1": 331, "\u00de\u00f3": 332, "\u00e1\u010d": 333, "\u00f1\u0101": 334, "V\u0103": 335, "\u00e1\u0161": 336, "K\u1ef3": 337, "j\u00f1\u0101": 338, "\u014cz": 339, "K\u014d": 340, "\u6226\u5834\u306e\u30f4\u30a1\u30eb\u30ad\u30e5\u30ea\u30a23": 341, "N\u02bf": 342, "R\u1ecb": 343, "B\u00ec": 344, "NN\u02bf": 345, "\u03baB": 346, "XX": 347, "L\u00fc": 348, "R\u00e4": 349, "H\u01b0\u01a1": 350, "\u016bj": 351, "K\u00f6": 352, "QNN\u02bf": 353, "XXX": 354, "XXV": 355, "LXXV": 356, "D\u01b0\u01a1": 357, "LXXVI": 358, "j\u014d": 359, "S\u1eed": 360, "`A": 361, "TQNN\u02bf": 362, "MTQNN\u02bf": 363, "T\u1ea5": 364, "\u014dj": 365, "W\u0142": 366, "N\u00ee": 367, "B\u00e0": 368, "2\u03b3": 369, "k\u1e63": 370, "@-": 371, "--": 372, "@-@": 373, "L\u00ea": 374, "19": 375, "\u00f1j": 376, "k\u00f6": 377, "20": 378, "\u00e2v": 379, "199": 380, "200": 381, "kk\u00f6": 382, "N\u00f6": 383, "201": 384, "j\u00f6": 385, "2009": 386, "Bj\u00f6": 387, "F\u00f6": 388, "1999": 389, "2007": 390, "'\u00ea": 391, "18": 392, "2008": 393, "189": 394, "M\u00ea": 395, "198": 396, "2006": 397, "1998": 398, "1989": 399, "1988": 400, "188": 401, "2004": 402, "1899": 403, "197": 404, "1889": 405, "1898": 406, "2005": 407, "1888": 408, "2003": 409, "196": 410, "194": 411, "1969": 412, "1968": 413, "1920": 414, "1986": 415, "1987": 416, "195": 417, "1964": 418, "193": 419, "1984": 420, "1958": 421, "1967": 422, "1939": 423, "1985": 424, "1980": 425, "1938": 426, "1959": 427, "1966": 428, "1983": 429, "1982": 430, "1981": 431, "1960": 432, "1936": 433, "1965": 434, "1963": 435, "1962": 436, "1961": 437, "1937": 438, "1978": 439, "1979": 440, "1930": 441, "1897": 442, "1935": 443, "1934": 444, "1933": 445, "1932": 446, "1931": 447, "1997": 448, "1948": 449, "1947": 450, "1996": 451, "1995": 452, "1949": 453, "1994": 454, "1993": 455, "1944": 456, "1990": 457, "1992": 458, "1991": 459, "1946": 460, "1895": 461, "2002": 462, "2013": 463, "187": 464, "1878": 465, "1879": 466, "1877": 467, "1874": 468, "1876": 469, "1894": 470, "1896": 471, "1890": 472, "1893": 473, "1892": 474, "1891": 475, "1870": 476, "1873": 477, "1189": 478, "1872": 479, "1875": 480, "1871": 481, "1187": 482, "2001": 483, "18-": 484, "2000": 485, "186": 486, "185": 487, "1956": 488, "1859": 489, "1918": 490, "1858": 491, "1857": 492, "184": 493, "1849": 494, "1848": 495, "1847": 496, "1856": 497, "183": 498, "1838": 499, "1854": 500, "1839": 501, "1837": 502, "1836": 503, "1844": 504, "1850": 505, "1853": 506, "1855": 507, "1852": 508, "1851": 509, "1840": 510, "1846": 511, "1845": 512, "1842": 513, "1843": 514, "1841": 515, "1834": 516, "1830": 517, "1832": 518, "1833": 519, "1835": 520, "1831": 521, "2014": 522, "2015": 523, "2012": 524, "2010": 525, "2016": 526, "2011": 527, "00": 528, "1954": 529, "1945": 530, "2017": 531, "000": 532, "1940": 533, "1950": 534, "1970": 535, "1880": 536, "1943": 537, "1942": 538, "1860": 539, "1957": 540, "1941": 541, "1953": 542, "1955": 543, "1952": 544, "1951": 545, "1974": 546, "190": 547, "1909": 548, "1908": 549, "1976": 550, "1977": 551, "1975": 552, "1973": 553, "1972": 554, "1907": 555, "1971": 556, "1905": 557, "1906": 558, "1904": 559, "1903": 560, "1902": 561, "1901": 562, "192": 563, "1869": 564, "1886": 565, "1929": 566, "1919": 567, "1928": 568, "191": 569, "1819": 570, "1927": 571, "1926": 572, "1924": 573, "1925": 574, "1923": 575, "1922": 576, "1921": 577, "1917": 578, "1916": 579, "1914": 580, "1913": 581, "1915": 582, "1910": 583, "1912": 584, "1911": 585, "1885": 586, "5191": 587, "1884": 588, "1191": 589, "1887": 590, "1883": 591, "1882": 592, "1881": 593, "500": 594, "100": 595, "1865": 596, "400": 597, "1800": 598, "800": 599, "300": 600, "600": 601, "700": 602, "900": 603, "1866": 604, "1868": 605, "1867": 606, "1863": 607, "1861": 608, "1864": 609, "1862": 610, "180": 611, "1808": 612, "1809": 613, "30": 614, "1820": 615, "50": 616, "10": 617, "0600": 618, "40": 619, "60": 620, "80": 621, "90": 622, "70": 623, "17": 624, "1790": 625, "1770": 626, "1708": 627, "179": 628, "16": 629, "1794": 630, "1660": 631, "1609": 632, "1795": 633, "1797": 634, "1798": 635, "1796": 636, "1793": 637, "1792": 638, "1791": 639, "177": 640, "1806": 641, "1776": 642, "1777": 643, "1775": 644, "176": 645, "1769": 646, "1766": 647, "1778": 648, "1767": 649, "1764": 650, "1761": 651, "1768": 652, "1765": 653, "1763": 654, "1774": 655, "1772": 656, "1779": 657, "1773": 658, "1771": 659, "1706": 660, "1170": 661, "360": 662, "1605": 663, "178": 664, "1789": 665, "1787": 666, "1788": 667, "1783": 668, "1784": 669, "1786": 670, "1782": 671, "1785": 672, "1604": 673, "1701": 674, "175": 675, "1759": 676, "1758": 677, "1756": 678, "1817": 679, "1753": 680, "1804": 681, "1801": 682, "1754": 683, "1803": 684, "1757": 685, "150": 686, "1818": 687, "1805": 688, "15": 689, "070": 690, "1703": 691, "28": 692, "1828": 693, "1755": 694, "38": 695, "1608": 696, "08": 697, "25": 698, "14": 699, "1208": 700, "1825": 701, "1108": 702, "1086": 703, "164": 704, "1648": 705, "1646": 706, "1649": 707, "1647": 708, "1643": 709, "1644": 710, "1645": 711, "1650": 712, "480": 713, "168": 714, "1689": 715, "1688": 716, "1686": 717, "1685": 718, "1684": 719, "1681": 720, "1683": 721, "1682": 722, "48": 723, "1628": 724, "1489": 725, "1748": 726, "448": 727, "26": 728, "88": 729, "75": 730, "1826": 731, "1260": 732, "27": 733, "1270": 734, "1827": 735, "78": 736, "878": 737, "978": 738, "76": 739, "766": 740, "767": 741, "1676": 742, "787": 743, "789": 744, "1807": 745, "07": 746, "29": 747, "1207": 748, "29X": 749, "129X": 750, "1829": 751, "1107": 752, "077": 753, "1072": 754, "1629": 755, "12": 756, "1268": 757, "1279": 758, "1127": 759, "1126": 760, "1265": 761, "1264": 762, "1129": 763, "1271": 764, "1206": 765, "1128": 766, "1281": 767, "1125": 768, "1642": 769, "1164": 770, "1641": 771, "24": 772, "1824": 773, "1124": 774, "1224": 775, "1802": 776, "47": 777, "13": 778, "1390": 779, "1138": 780, "1747": 781, "1751": 782, "13400": 783, "11": 784, "77": 785, "5240": 786, "1813": 787, "1166": 788, "1154": 789, "1161": 790, "1137": 791, "1123": 792, "1155": 793, "1142": 794, "1165": 795, "1135": 796, "1121": 797, "1677": 798, "1139": 799, "1132": 800, "1136": 801, "1133": 802, "1131": 803, "1122": 804, "1145": 805, "1811": 806, "21": 807, "977": 808, "1603": 809, "45": 810, "690": 811, "1821": 812, "1345": 813, "1221": 814, "261": 815, "23": 816, "1234": 817, "1237": 818, "1233": 819, "1235": 820, "1231": 821, "1823": 822, "22": 823, "1229": 824, "370": 825, "1822": 826, "1402": 827, "37": 828, "1738": 829, "737": 830, "1637": 831, "457": 832, "790": 833, "79": 834, "1679": 835, "87": 836, "1812": 837, "874": 838, "679": 839, "98": 840, "1816": 841, "799": 842, "979": 843, "794": 844, "49": 845, "1549": 846, "97": 847, "1622": 848, "986": 849, "1697": 850, "697": 851, "972": 852, "971": 853, "973": 854, "39": 855, "57": 856, "1639": 857, "1573": 858, "99": 859, "999": 860, "1099": 861, "995": 862, "996": 863, "09": 864, "1096": 865, "1095": 866, "89": 867, "895": 868, "96": 869, "991": 870, "1596": 871, "699": 872, "696": 873, "957": 874, "968": 875, "169": 876, "67": 877, "1567": 878, "1667": 879, "1674": 880, "1692": 881, "1672": 882, "1694": 883, "1691": 884, "1693": 885, "667": 886, "467": 887, "1625": 888, "35": 889, "135X": 890, "1351": 891, "1435": 892, "358": 893, "355": 894, "31": 895, "1631": 896, "1331": 897, "36": 898, "368": 899, "1336": 900, "1736": 901, "166": 902, "95": 903, "1669": 904, "1664": 905, "1662": 906, "1666": 907, "1665": 908, "1663": 909, "1661": 910, "94": 911, "59": 912, "35928": 913, "935928": 914, "1593": 915, "1592": 916, "1059": 917, "593": 918, "69": 919, "85": 920, "1438": 921, "4160": 922, "881": 923, "1102": 924, "1545": 925, "2854": 926, "1569": 927, "A4160": 928, "691": 929, "938": 930, "1105": 931, "68": 932, "568": 933, "65": 934, "468": 935, "1653": 936, "1656": 937, "1651": 938, "1652": 939, "1065": 940, "684": 941, "1616": 942, "865": 943, "550": 944, "588": 945, "366": 946, "660": 947, "155": 948, "731": 949, "1558": 950, "1553": 951, "1554": 952, "1555": 953, "1552": 954, "06": 955, "1624": 956, "1064": 957, "1063": 958, "56": 959, "1563": 960, "056": 961, "64": 962, "864": 963, "66": 964, "46": 965, "1546": 966, "746": 967, "86": 968, "44": 969, "1744": 970, "1544": 971, "1044": 972, "462": 973, "74": 974, "05": 975, "2055": 976, "1743": 977, "1741": 978, "1742": 979, "1054": 980, "1052": 981, "55": 982, "555": 983, "72": 984, "1714": 985, "54": 986, "682": 987, "71": 988, "1542": 989, "154E": 990, "42": 991, "58": 992, "4232": 993, "A4232": 994, "84": 995, "835": 996, "81": 997, "34": 998, "692": 999, "738": 1000, "1534": 1001, "1204": 1002, "463": 1003, "1638": 1004, "1101": 1005, "51": 1006, "53": 1007, "61": 1008, "853D": 1009, "1532": 1010, "153E": 1011, "533": 1012, "52": 1013, "1623": 1014, "743": 1015, "62": 1016, "41": 1017, "04": 1018, "43": 1019, "33": 1020, "47338": 1021, "133X": 1022, "1633": 1023, "883": 1024, "32": 1025, "733": 1026, "1632": 1027, "93": 1028, "983": 1029, "032": 1030, "1103": 1031, "73": 1032, "63": 1033, "82": 1034, "151E": 1035, "03": 1036, "483": 1037, "83": 1038, "2501": 1039, "02": 1040, "592": 1041, "333": 1042, "91": 1043, "92": 1044, "910L": 1045, "152E": 1046, "101": 1047, "1115": 1048, "M1822": 1049, "01": 1050, "111": 1051, "U\u00ed": 1052, "T\u00e5": 1053, "129I": 1054, "J\u00fc": 1055, "`Ab": 1056, "j\u00f8": 1057, "v\u012b": 1058, "\u0101v\u012b": 1059, "Bj\u00f8": 1060, "v\u00e5": 1061, "D\u00fc": 1062, "M\u00fc": 1063, "G\u00fc": 1064, "M\u00e1": 1065, "D\u00ed": 1066, "y\u1ec5": 1067, "B\u00fc": 1068, "y\u016bj": 1069, "R\u00e9": 1070, "A320": 1071, "NY": 1072, "T\u00fa": 1073, "ZX": 1074, "UK": 1075, "222": 1076, "Ry\u016bj": 1077, "XV": 1078, "H\u00e4": 1079, "104A": 1080, "\u1e45g": 1081, "\u1e45g\u012b": 1082, "XVI": 1083, "XI": 1084, "zz": 1085, "j\u00e1": 1086, "y\u016b": 1087, "k\u0101": 1088, "US": 1089, "\u0111m": 1090, "k\u0101k\u0101": 1091, "XII": 1092, "Ry\u016b": 1093, "XIV": 1094, "XIII": 1095, "k\u0101k\u0101p": 1096, "USD": 1097, "v\u0101": 1098, "U2": 1099, "\u03bcm": 1100, "k\u0101k\u0101p\u014d": 1101, "M\u0101": 1102, "H\u00e4m": 1103, "\u00cdm": 1104, "m\u00e1\u0161": 1105, "N\u00eem": 1106, "m\u0117": 1107, "m\u016b": 1108, "R\u00f8": 1109, "u\u0111m": 1110, "Tu\u0111m": 1111, "uy\u1ec5": 1112, "guy\u1ec5": 1113, "u\u1ea3": 1114, "Qu\u1ea3": 1115, "Nguy\u1ec5": 1116, "S\u1eedu": 1117, "151Eu": 1118, "153Eu": 1119, "152Eu": 1120, "154Eu": 1121, "qu": 1122, "f\u00fc": 1123, "USA": 1124, "\u00b5m": 1125, "\u0161k": 1126, "g\u00f6": 1127, "194F": 1128, "T\u00f8": 1129, "\u01b0\u1edbc": 1130, "qq": 1131, "\u00b5g": 1132, "\u00fcm": 1133, "USAC": 1134, "\u1eafc": 1135, "\u00fcmq": 1136, "USACE": 1137, "\u0100c": 1138, "R\u00e9u": 1139, "194A": 1140, "\u0100c\u0101": 1141, "A48": 1142, "3D": 1143, "3DS": 1144, "y\u0101": 1145, "3X": 1146, "W3X": 1147, "W3XW": 1148, "Sy\u0101": 1149, "W3XWT": 1150, "S\u00e3": 1151, "Qu": 1152, "M\u00fcg": 1153, "\u00edv": 1154, "Q3": 1155, "M\u00fcgg": 1156, "QF": 1157, "qu\u00ed": 1158, "QH": 1159, "u\u017e": 1160, "@.": 1161, "@.@": 1162, "AQH": 1163, "AQHA": 1164, "@,": 1165, "@,@": 1166, "\u00cel": 1167, "\u00dal": 1168, "B\u00fcl": 1169, "\u00c5l": 1170, "\u00c1l": 1171, "\u00c1lv": 1172, "v\u00e5l": 1173, "lu\u017e": 1174, "Plu\u017e": 1175, "\u00fbl": 1176, "\u00fbl\u00e9": 1177, "l\u00edv": 1178, "M\u00eal": 1179, "M\u00eal\u00e9": 1180, "N\u00f6l": 1181, "`Abd": 1182, "`Abdu": 1183, "d\u017e": 1184, "Od\u017e": 1185, "Sy\u0101d": 1186, "Sy\u0101dv\u0101": 1187, "N\u00f6ld": 1188, "D\u00e1": 1189, "NZ": 1190, "K\u00f6p": 1191, "ANZ": 1192, "NZE": 1193, "ANZA": 1194, "K\u00f6pp": 1195, "Sy\u0101dv\u0101d": 1196, "NZEF": 1197, "ANZAC": 1198, "v\u0101d": 1199, "HQ": 1200, "II": 1201, "Ex": 1202, "R\u00e9p": 1203, "USS": 1204, "USDA": 1205, "\u1ec7m": 1206, "GHQ": 1207, "v\u0101k": 1208, "VII": 1209, "III": 1210, "LVII": 1211, "R\u00e9pu": 1212, "XLVII": 1213, "R\u00e9pub": 1214, "\u1ec7u": 1215, "USSR": 1216, "Exp": 1217, "194C": 1218, "G\u00e1": 1219, "G\u00e1l": 1220, "G\u00e1lv": 1221, "R\u00e9publ": 1222, "L\u00e1": 1223, "L\u00e1g": 1224, "z\u00e1": 1225, "h\u01b0\u1edbc": 1226, "Ph\u01b0\u1edbc": 1227, "z\u00e1l": 1228, "h\u1eafc": 1229, "Kh\u1eafc": 1230, "h\u014dj": 1231, "h\u0101v\u012b": 1232, "\u1e6d\u1e6dh": 1233, "IX": 1234, "y\u0101d": 1235, "TV": 1236, "F\u00e9": 1237, "R\u00e9g": 1238, "K\u014dk": 1239, "y\u0101dv\u0101d": 1240, "MTV": 1241, "4TV": 1242, "G4TV": 1243, "ITV": 1244, "DTV": 1245, "SMTV": 1246, "WDTV": 1247, "NDTV": 1248, "DV": 1249, "DVD": 1250, "V\u00e9": 1251, "Dj": 1252, "uzz": 1253, "F\u00e9l": 1254, "v\u00e4": 1255, "\u0144s": 1256, "\u0144sk": 1257, "puzz": 1258, "Puzz": 1259, "puzzl": 1260, "F\u00e9d": 1261, "Ozz": 1262, "\u00d6s": 1263, "F\u00e9d\u00e9": 1264, "Ozzy": 1265, "Puzzl": 1266, "muzz": 1267, "R\u00e9s": 1268, "muzzl": 1269, "sv\u00e4": 1270, "\u00eas": 1271, "T\u00e5s": 1272, "sm\u0117": 1273, "m\u016bs": 1274, "m\u016bs\u0173": 1275, "sh\u014dj": 1276, "sy\u0101dv\u0101d": 1277, "\u1e43s": 1278, "\u1e43s\u0101": 1279, "sy\u0101": 1280, "D\u00fcs": 1281, "VN": 1282, "89A": 1283, "\u1e6fr": 1284, "RVN": 1285, "ARVN": 1286, "AVN": 1287, "PAVN": 1288, "SVN": 1289, "D\u00fcss": 1290, "F\u00f6r": 1291, "OSVN": 1292, "F\u00f6rs": 1293, "f\u00fcr": 1294, "COSVN": 1295, "\u00dcr": 1296, "\u00dcr\u00fcmq": 1297, "sv\u00e4r": 1298, "sv\u00e4rd": 1299, "rj\u00e1": 1300, "F\u00e9d\u00e9r": 1301, "ry\u016b": 1302, "ury\u016b": 1303, "V\u00e9r": 1304, "kury\u016b": 1305, "J\u00fcr": 1306, "J\u00fcrg": 1307, "R\u00f8r": 1308, "Bj\u00f8r": 1309, "\u00de\u00f3r": 1310, "\u00de\u00f3rf": 1311, "L\u00e1gr": 1312, "Bj\u00f6r": 1313, "r\u00eas": 1314, "r\u1ea7": 1315, "Tr\u1ea7": 1316, "r\u00fbl\u00e9": 1317, "Br\u00fbl\u00e9": 1318, "r\u00f6": 1319, "hr\u00f6": 1320, "1303r": 1321, "chr\u00f6": 1322, "1303rd": 1323, "h\u0101v\u012br": 1324, "Schr\u00f6": 1325, "\u0100c\u0101r": 1326, "\u0100c\u0101ry": 1327, "r\u01b0\u01a1": 1328, "Tr\u01b0\u01a1": 1329, "M\u00e1r": 1330, "M\u00e1rqu": 1331, "rg\u00f6": 1332, "UN": 1333, "D\u00e1l": 1334, "g\u00f4": 1335, "Ng\u00f4": 1336, "UNE": 1337, "UNES": 1338, "UNO": 1339, "UNESC": 1340, "UNOS": 1341, "UNI": 1342, "l\u0101": 1343, "UNESCO": 1344, "UNOSO": 1345, "UNIC": 1346, "ll\u0101": 1347, "UNICE": 1348, "UNOSOM": 1349, "All\u0101": 1350, "UNICEF": 1351, "All\u0101h": 1352, "ll\u0101h": 1353, "\u0101v": 1354, "\u00c6l": 1355, "'\u00ed": 1356, "K\u014ds": 1357, "L\u00f3": 1358, "L\u00f3p": 1359, "\u00c6lf": 1360, "h\u0101v": 1361, "bh\u0101v": 1362, "\u00c6lfr": 1363, "Th": 1364, "T30": 1365, "h\u00f4": 1366, "Rh\u00f4": 1367, "\u00f4m": 1368, "r\u00f4m": 1369, "UT": 1370, "USAI": 1371, "FX": 1372, "i\u010d": 1373, "\u00e9r\u00f4m": 1374, "XFX": 1375, "VFX": 1376, "J\u00e9r\u00f4m": 1377, "USAID": 1378, "UTC": 1379, "vi\u010d": 1380, "ivi\u010d": 1381, "rivi\u010d": 1382, "Grivi\u010d": 1383, "Grivi\u010di": 1384, "Grivi\u010di\u0107": 1385, "\u0144ski": 1386, "F\u00e9li": 1387, "F\u00e9lix": 1388, "\u00dcr\u00fcmqi": 1389, "uzzi": 1390, "R\u00e9publi": 1391, "R\u00e9public": 1392, "D\u00e1i": 1393, "D\u00e1il": 1394, "R\u00e9gi": 1395, "R\u00e9gim": 1396, "\u00de\u00f3rfi": 1397, "L\u00e1gri": 1398, "L\u00e1grim": 1399, "i\u015b": 1400, "Wi\u015b": 1401, "R\u00e4i": 1402, "R\u00e4ikk\u00f6": 1403, "i\u1ec7m": 1404, "Di\u1ec7m": 1405, "Plu\u017ei": 1406, "i\u1ec7u": 1407, "Thi\u1ec7u": 1408, "ill\u0101h": 1409, "mill\u0101h": 1410, "ish\u014dj": 1411, "bish\u014dj": 1412, "smill\u0101h": 1413, "Ry\u016bji": 1414, "ismill\u0101h": 1415, "bismill\u0101h": 1416, "\u00c6lfri": 1417, "\u00c6lfric": 1418, "i\u1e43s\u0101": 1419, "hi\u1e43s\u0101": 1420, "iv\u0101k": 1421, "R\u00e9so": 1422, "Div\u0101k": 1423, "R\u00e9sol": 1424, "o\u00ee": 1425, "R\u00e9solu": 1426, "orj\u00e1": 1427, "dorj\u00e1": 1428, "o\u00eb": 1429, "Zo\u00eb": 1430, "No\u00eb": 1431, "Adorj\u00e1": 1432, "No\u00ebl": 1433, "M\u0101o": 1434, "M\u0101or": 1435, "o\u00e2v": 1436, "Go\u00e2v": 1437, "M\u0101ori": 1438, "\u014czo": 1439, "\u014czor": 1440, "okury\u016b": 1441, "Kokury\u016b": 1442, "S\u00e3o": 1443, "V\u00e9ro": 1444, "B\u00fclo": 1445, "B\u00fclow": 1446, "R\u00f8ro": 1447, "R\u00f8ros": 1448, "om\u00e1\u0161": 1449, "Tom\u00e1\u0161": 1450, "bish\u014djo": 1451, "ol\u00edv": 1452, "Azz": 1453, "nj\u014d": 1454, "Bol\u00edv": 1455, "n\u1e6fr": 1456, "nz\u00e1l": 1457, "onz\u00e1l": 1458, "qu\u00edn": 1459, "Gonz\u00e1l": 1460, "K\u00f6n": 1461, "K\u00f6ni": 1462, "nsv\u00e4rd": 1463, "K\u00f6nig": 1464, "no\u00ee": 1465, "Adorj\u00e1n": 1466, "\u00e1\u010dn": 1467, "\u00e1\u010dni": 1468, "G\u00fcn": 1469, "\u00e1\u010dnik": 1470, "R\u00e9un": 1471, "R\u00e9uni": 1472, "V\u00e9ron": 1473, "R\u00e9unio": 1474, "T\u00f8n": 1475, "T\u00f8ns": 1476, "R\u00e9union": 1477, "T\u00f8nsb": 1478, "Bj\u00f8rn": 1479, "\u00de\u00f3rfin": 1480, "\u00de\u00f3rfinn": 1481, "\u00de\u00f3rfinnr": 1482, "Bj\u00f6rn": 1483, "Wi\u015bn": 1484, "Wi\u015bni": 1485, "R\u00e4ikk\u00f6n": 1486, "Wi\u015bnio": 1487, "Rh\u00f4n": 1488, "Wi\u015bniow": 1489, "B\u00ecn": 1490, "B\u00ecnh": 1491, "Wi\u015bniowi": 1492, "\u0110\u00ecn": 1493, "\u0110\u00ecnh": 1494, "D\u01b0\u01a1n": 1495, "D\u01b0\u01a1ng": 1496, "V\u0103n": 1497, "Nguy\u1ec5n": 1498, "Tr\u1ea7n": 1499, "T\u1ea5n": 1500, "Qu\u1ea3n": 1501, "Qu\u1ea3ng": 1502, "Plu\u017ein": 1503, "H\u01b0\u01a1n": 1504, "H\u01b0\u01a1ng": 1505, "Ry\u016bjin": 1506, "Ry\u016bjinm": 1507, "j\u00f1\u0101n": 1508, "Ry\u016bjinmu": 1509, "Ry\u016bn": 1510, "Ry\u016bjinmur": 1511, "Ry\u016bno": 1512, "Tr\u01b0\u01a1n": 1513, "Tr\u01b0\u01a1ng": 1514, "Ry\u016bnos": 1515, "M\u00fcn": 1516, "qu\u00e9": 1517, "Ry\u016bnosu": 1518, "M\u00fcnc": 1519, "squ\u00e9": 1520, "Squ": 1521, "k\u0101n": 1522, "Ry\u016bnosuk": 1523, "usqu\u00e9": 1524, "k\u0101l": 1525, "M\u00fcnch": 1526, "s\u0142": 1527, "USAA": 1528, "TX": 1529, "GTX": 1530, "USAAF": 1531, "Busqu\u00e9": 1532, "ys\u0142": 1533, "h\u014d": 1534, "c\u00ed": 1535, "'s": 1536, "\u00f3n": 1537, "D\u00eda": 1538, "D\u00edaz": 1539, "Sh\u014d": 1540, "G\u00f3": 1541, "B\u00f3": 1542, "k\u00f3": 1543, "k\u00f3w": 1544, "G\u00f3m": 1545, "mB\u00f3": 1546, "w\u00f3": 1547, "Lw\u00f3": 1548, "Lw\u00f3w": 1549, "'\u00e9": 1550, "dys\u0142": 1551, "d\u014d": 1552, "s\u00f3": 1553, "Os\u00f3": 1554, "Os\u00f3r": 1555, "rc\u00ed": 1556, "Os\u00f3ri": 1557, "od\u014d": 1558, "Sh\u014dn": 1559, "hod\u014d": 1560, "oc\u00ed": 1561, "uhod\u014d": 1562, "Os\u00f3rio": 1563, "noc\u00ed": 1564, "r\u00f3n": 1565, "f\u00fcrs": 1566, "aqu\u00edn": 1567, "m\u00f3n": 1568, "rf\u00fcrs": 1569, "urf\u00fcrs": 1570, "ruhod\u014d": 1571, "oaqu\u00edn": 1572, "Kurf\u00fcrs": 1573, "Joaqu\u00edn": 1574, "onoc\u00ed": 1575, "arc\u00ed": 1576, "Garc\u00ed": 1577, "Conoc\u00ed": 1578, "Garc\u00eda": 1579, "\u0161ka": 1580, "a\u0161": 1581, "ra\u0161ka": 1582, "i\u0161ka": 1583, "Tu\u0111ma": 1584, "Pra\u0161ka": 1585, "Tu\u0111man": 1586, "ak\u00f3w": 1587, "rak\u00f3w": 1588, "s\u0142a": 1589, "Krak\u00f3w": 1590, "s\u0142aw": 1591, "adys\u0142aw": 1592, "W\u0142adys\u0142aw": 1593, "R\u00e9publica": 1594, "R\u00e9publicai": 1595, "W\u0142o": 1596, "Azza": 1597, "W\u0142od": 1598, "Azzar": 1599, "R\u00e9publicain": 1600, "F\u00e9d\u00e9ra": 1601, "W\u0142odz": 1602, "K\u014dsa": 1603, "K\u014dsak": 1604, "W\u0142odzi": 1605, "\u014czora": 1606, "W\u0142odzim": 1607, "K\u014dsaku": 1608, "\u00cdma": 1609, "\u00cdmar": 1610, "W\u0142odzimi": 1611, "L\u00e1grima": 1612, "L\u00e1grimas": 1613, "\u0141a": 1614, "\u0141as": 1615, "\u00c1lva": 1616, "\u0141asz": 1617, "\u00c1lvar": 1618, "aqq": 1619, "Saqq": 1620, "\u0141aszc": 1621, "\u00c1lvaro": 1622, "\u0141aszcz": 1623, "Saqqa": 1624, "Saqqar": 1625, "R\u1ecba": 1626, "Saqqara": 1627, "Od\u017ea": 1628, "Od\u017eak": 1629, "K\u014dka": 1630, "K\u014dkak": 1631, "Ry\u016bjinmura": 1632, "K\u014dkaku": 1633, "v\u0101da": 1634, "ah\u0101v\u012br": 1635, "Mah\u0101v\u012br": 1636, "Mah\u0101v\u012bra": 1637, "ahi\u1e43s\u0101": 1638, "a\u1e45g\u012b": 1639, "ha\u1e45g\u012b": 1640, "a\u1e25": 1641, "bha\u1e45g\u012b": 1642, "ya\u1e25": 1643, "k\u0101la": 1644, "vya\u1e25": 1645, "ibha\u1e45g\u012b": 1646, "bh\u0101va": 1647, "avya\u1e25": 1648, "aj\u00f1\u0101n": 1649, "laj\u00f1\u0101n": 1650, "alaj\u00f1\u0101n": 1651, "valaj\u00f1\u0101n": 1652, "valaj\u00f1\u0101na": 1653, "\u0100c\u0101rya": 1654, "a\u00f1j": 1655, "Sa\u00f1j": 1656, "Sa\u00f1ja": 1657, "Sa\u00f1jay": 1658, "a\u1e6d\u1e6dh": 1659, "la\u1e6d\u1e6dh": 1660, "Sa\u00f1jaya": 1661, "la\u1e6d\u1e6dha": 1662, "la\u1e6d\u1e6dhap": 1663, "Div\u0101ka": 1664, "la\u1e6d\u1e6dhapu": 1665, "Div\u0101kar": 1666, "aruhod\u014d": 1667, "Naruhod\u014d": 1668, "Div\u0101kara": 1669, "Bol\u00edva": 1670, "Bol\u00edvar": 1671, "Squa": 1672, "'\u00e9t": 1673, "Squad": 1674, "Squi": 1675, "'\u00e9ta": 1676, "F\u00f6rst": 1677, "Squar": 1678, "Squir": 1679, "Squadr": 1680, "'\u00e9tat": 1681, "Squadro": 1682, "ta\u0161": 1683, "sta\u0161": 1684, "Squadron": 1685, "Kurf\u00fcrst": 1686, "Usta\u0161": 1687, "L\u00fct": 1688, "L\u00fctz": 1689, "tuzzi": 1690, "L\u00fcth": 1691, "L\u00fctzo": 1692, "ntuzzi": 1693, "no\u00eet": 1694, "L\u00fctzow": 1695, "L\u00fctho": 1696, "antuzzi": 1697, "t\u00e1\u010dnik": 1698, "Fantuzzi": 1699, "Ft\u00e1\u010dnik": 1700, "L\u00fcthor": 1701, "'\u00eat": 1702, "L\u00fcthors": 1703, "'\u00eatr": 1704, "F\u00e9d\u00e9rat": 1705, "F\u00e9d\u00e9rati": 1706, "G\u00fcnt": 1707, "G\u00fcnth": 1708, "F\u00e9d\u00e9ratio": 1709, "766t": 1710, "766th": 1711, "F\u00e9d\u00e9ration": 1712, "549t": 1713, "549th": 1714, "588t": 1715, "588th": 1716, "\u00dalt": 1717, "\u00dalti": 1718, "445t": 1719, "\u00daltim": 1720, "445th": 1721, "ti\u0161ka": 1722, "uti\u0161ka": 1723, "\u00daltimo": 1724, "Schr\u00f6t": 1725, "auti\u0161ka": 1726, "k\u0101nt": 1727, "Tauti\u0161ka": 1728, "k\u0101nta": 1729, "tibha\u1e45g\u012b": 1730, "k\u0101ntav\u0101da": 1731, "ptibha\u1e45g\u012b": 1732, "tavya\u1e25": 1733, "ktavya\u1e25": 1734, "aptibha\u1e45g\u012b": 1735, "la\u1e6d\u1e6dhaput": 1736, "saptibha\u1e45g\u012b": 1737, "aktavya\u1e25": 1738, "la\u1e6d\u1e6dhaputt": 1739, "vaktavya\u1e25": 1740, "la\u1e6d\u1e6dhaputta": 1741, "rg\u00f6t": 1742, "rg\u00f6tz": 1743, "avaktavya\u1e25": 1744, "L\u00fcthorst": 1745, "Squirt": 1746, "IIF": 1747, "d\u00f8": 1748, "K7": 1749, "\u00f1o": 1750, "\u00fal": 1751, ".122": 1752, "h\u00e1": 1753, "Kh\u00e1": 1754, "\u00falz": 1755, "E.122": 1756, "IIFA": 1757, "Squirtl": 1758, "S\u00e1": 1759, "C\u00e1": 1760, "o\u00f1": 1761, "Do\u00f1": 1762, "C\u00e1l": 1763, "od\u00f8": 1764, "n\u00fa": 1765, "Kn\u00fa": 1766, "Bod\u00f8": 1767, "C\u00e1li": 1768, "Kh\u00e1n": 1769, "s\u00f8": 1770, "Do\u00f1a": 1771, "ms\u00f8": 1772, "C\u00e1lid": 1773, "Kh\u00e1nh": 1774, "r\u00f8": 1775, "ah\u00e1": 1776, "Bah\u00e1": 1777, "oms\u00f8": 1778, "C\u00e1lida": 1779, "C\u00e1lidas": 1780, "roms\u00f8": 1781, "a\u00falz": 1782, "Ka\u00falz": 1783, "Troms\u00f8": 1784, "Ka\u00falza": 1785, "Kn\u00fat": 1786, "OK": 1787, "UE": 1788, "<f": 1789, "\u0101d": 1790, "ju": 1791, "ATV": 1792, "is\u0142aw": 1793, "IV": 1794, "xp": 1795, "UEF": 1796, "NOK": 1797, "ROK": 1798, "UEFA": 1799, "HIV": 1800, "HOK": 1801, "m\u0101d": 1802, "IVA": 1803, "juju": 1804, "Kn\u00fatr": 1805, "<fo": 1806, "nis\u0142aw": 1807, "Ju": 1808, "i\u02bb": 1809, "CHOK": 1810, "Ju\u00e1": 1811, "r\u0101d": 1812, "kr\u0101d": 1813, "Ju\u00e1r": 1814, "Akr\u0101d": 1815, "<for": 1816, "i\u02bbi": 1817, "<form": 1818, "m\u0101di": 1819, "o\u02bb": 1820, "Ho\u02bb": 1821, "<formu": 1822, "<formul": 1823, "Ho\u02bbo": 1824, "Ho\u02bbol": 1825, "o\u02bbo": 1826, "Ho\u02bbolu": 1827, "o\u02bbol": 1828, "Ho\u02bbolul": 1829, "no\u02bbol": 1830, "anis\u0142aw": 1831, "Ho\u02bbolulu": 1832, "ino\u02bbol": 1833, "ai\u02bbi": 1834, "Kino\u02bbol": 1835, "wai\u02bbi": 1836, "<formula": 1837, "<formula>": 1838, "awai\u02bbi": 1839, "Hawai\u02bbi": 1840, "am\u0101di": 1841, "tanis\u0142aw": 1842, "Stanis\u0142aw": 1843, "ram\u0101di": 1844, "jujut": 1845, "kram\u0101di": 1846, "jujuts": 1847, "jujutsu": 1848, "ikram\u0101di": 1849, "Vikram\u0101di": 1850, "Vikram\u0101dit": 1851, ".69": 1852, "352n": 1853, "im\u00f3n": 1854, "c\u00e9": 1855, "1980s": 1856, "TVL": 1857, "Sim\u00f3n": 1858, "Vikram\u0101dity": 1859, "352nd": 1860, "TVLi": 1861, "nc\u00e9": 1862, "M\u00e9": 1863, "TVLin": 1864, "onc\u00e9": 1865, "L\u00e9": 1866, "yonc\u00e9": 1867, "L\u00e9g": 1868, "B\u00e9": 1869, "B\u00e9d": 1870, "L\u00e9gi": 1871, "L\u00e9o": 1872, "g\u00e9": 1873, "am\u00f3n": 1874, "\u00e9g\u00e9": 1875, "Ram\u00f3n": 1876, "L\u00e9gio": 1877, "L\u00e9on": 1878, "rg\u00e9": 1879, "L\u00e9gion": 1880, "anc\u00e9": 1881, "ianc\u00e9": 1882, "fianc\u00e9": 1883, "ig\u00e9": 1884, "hig\u00e9": 1885, "phig\u00e9": 1886, "Iphig\u00e9": 1887, "Iphig\u00e9n": 1888, "Vikram\u0101ditya": 1889, "Iphig\u00e9ni": 1890, "B\u00e9da": 1891, "t\u00e9g\u00e9": 1892, "P\u00e9": 1893, "272n": 1894, "272nd": 1895, "P\u00e9r": 1896, "B\u00e9dar": 1897, "ot\u00e9g\u00e9": 1898, "i\u00e3": 1899, "U.": 1900, "XN": 1901, "\u00c6s": 1902, "n\u00e7": 1903, "C\u00e9": 1904, "Ev": 1905, "Gi\u00e3": 1906, "MXN": 1907, "U.S": 1908, "B\u00e9dard": 1909, "rot\u00e9g\u00e9": 1910, "C\u00e9c": 1911, "\u00e7a": 1912, "\u00c6st": 1913, "U.S.": 1914, "prot\u00e9g\u00e9": 1915, "\u00c6sth": 1916, "\u00e7ad": 1917, "C\u00e9s": 1918, "C\u00e9ci": 1919, "n\u00e7o": 1920, "\u00c6t": 1921, "\u00e7am": 1922, "C\u00e9cil": 1923, "\u00c6th": 1924, "U.S.H": 1925, ".U.S.H": 1926, "R.U.S.H": 1927, ".R.U.S.H": 1928, "C.R.U.S.H": 1929, "C.R.U.S.H.": 1930, "\u00e7amb": 1931, "\u00e7ambi": 1932, "\u00e7ambiqu": 1933, "o\u00e7ambiqu": 1934, "C\u00e9sa": 1935, "Mo\u00e7ambiqu": 1936, "C\u00e9sar": 1937, "a\u00e7ad": 1938, "n\u00e7oi": 1939, "fa\u00e7ad": 1940, "n\u00e7ois": 1941, "an\u00e7ois": 1942, "HX": 1943, "n\u00e7ai": 1944, "\u00e3o": 1945, "FE": 1946, "THX": 1947, "AFE": 1948, "n\u00e7ais": 1949, "ran\u00e7ois": 1950, "on\u00e7a": 1951, "n\u00e3": 1952, "Fran\u00e7ois": 1953, "SAFE": 1954, "an\u00e7ais": 1955, "ran\u00e7ais": 1956, "an\u00e3": 1957, "i\u0107": 1958, "Jul": 1959, "Un": 1960, "1960s": 1961, "Ox": 1962, "USG": 1963, "Fran\u00e7ais": 1964, "USGS": 1965, "July": 1966, "Oxf": 1967, "can\u00e3": 1968, "vi\u0107": 1969, "Oxb": 1970, "fran\u00e7ais": 1971, "pi\u0107": 1972, "EU": 1973, "ovi\u0107": 1974, "kovi\u0107": 1975, "povi\u0107": 1976, "rkovi\u0107": 1977, "rpi\u0107": 1978, "gi\u0107": 1979, "ipovi\u0107": 1980, "Prpi\u0107": 1981, "sipovi\u0107": 1982, "rkovi\u0107i": 1983, "ogi\u0107": 1984, "Nogi\u0107": 1985, "osipovi\u0107": 1986, "Josipovi\u0107": 1987, "Oxbo": 1988, "Oxbow": 1989, "Oxfo": 1990, "Juli": 1991, "acan\u00e3": 1992, "Oxfor": 1993, "Oxford": 1994, "racan\u00e3": 1995, "Oxfa": 1996, "Oxfam": 1997, "aracan\u00e3": 1998, "Maracan\u00e3": 1999, "\u0107a": 2000, "Uni": 2001, "1U": 2002, "1UP": 2003, "Univ": 2004, "Und": 2005, "Up": 2006, "1UP.": 2007, "UC": 2008, "UCN": 2009, "UCL": 2010, "IUCN": 2011, "UCI": 2012, "UCLA": 2013, "1UP.c": 2014, "CU": 2015, "ECU": 2016, "CUM": 2017, "CUMM": 2018, "SCUMM": 2019, "ICU": 2020, "CCU": 2021, "1UP.co": 2022, "AU": 2023, "FAU": 2024, "IAU": 2025, "1UP.com": 2026, "PU": 2027, "GPU": 2028, "SPU": 2029, "FU": 2030, "Upp": 2031, "GPUs": 2032, "WSPU": 2033, "RFU": 2034, "UP": 2035, "UPN": 2036, "UPT": 2037, "RU": 2038, "WRU": 2039, "SU": 2040, "Unit": 2041, "li\u0107": 2042, "LSU": 2043, "BSU": 2044, "SUO": 2045, "Unio": 2046, "ti\u0107": 2047, "Unl": 2048, "502n": 2049, "1950s": 2050, "by": 2051, "G\u00e9": 2052, "502nd": 2053, "Unic": 2054, "G\u00e9r": 2055, "Unli": 2056, "Union": 2057, "Unlik": 2058, "Unif": 2059, "Unico": 2060, "G\u00e9ra": 2061, "bj": 2062, "Unlim": 2063, "ubj": 2064, "G\u00e9rar": 2065, "Unicod": 2066, "M\u00e9t": 2067, "i\u00e8": 2068, "Yo": 2069, "ck": 2070, "\u00d8s": 2071, "zi\u00e8": 2072, "vi\u00e8": 2073, "Si\u00e8": 2074, "M\u00e9d": 2075, "Si\u00e8c": 2076, "i\u00e8m": 2077, "G\u00e9rard": 2078, "bi\u00e8": 2079, "Si\u00e8cl": 2080, "You": 2081, "subj": 2082, "Unicor": 2083, "YouT": 2084, "i\u00e8r": 2085, "YouTu": 2086, "rbi\u00e8r": 2087, "Unlimi": 2088, "YouTub": 2089, "ivi\u00e8r": 2090, "Rivi\u00e8r": 2091, "M\u00e9ti": 2092, "ozi\u00e8r": 2093, "Pozi\u00e8r": 2094, "M\u00e9tis": 2095, "orbi\u00e8r": 2096, "Unicorn": 2097, "Corbi\u00e8r": 2098, "obj": 2099, "Yor": 2100, "Unlimit": 2101, "York": 2102, "Yok": 2103, "bji": 2104, "Yoko": 2105, "abji": 2106, "ti\u00e8m": 2107, "Yokoz": 2108, "gti\u00e8m": 2109, "rabji": 2110, "ti\u00e8r": 2111, "Yokozu": 2112, "orabji": 2113, "ngti\u00e8m": 2114, "Sorabji": 2115, "ingti\u00e8m": 2116, "nti\u00e8r": 2117, "Vingti\u00e8m": 2118, "onti\u00e8r": 2119, "Yokozun": 2120, "\u00d8st": 2121, "g\u00e8": 2122, "Yu": 2123, "ug\u00e8": 2124, "ronti\u00e8r": 2125, "Eug\u00e8": 2126, "Fronti\u00e8r": 2127, "Eug\u00e8n": 2128, "h\u00e8": 2129, "Yokozuna": 2130, "Yug": 2131, "ph\u00e8": 2132, "\u00e8g": 2133, "f\u00e8g": 2134, "d\u00e8": 2135, "lf\u00e8g": 2136, "d\u00e8s": 2137, "id\u00e8s": 2138, "Yugo": 2139, "lid\u00e8s": 2140, "Yugos": 2141, "oph\u00e8": 2142, "Yugosl": 2143, "roph\u00e8": 2144, "olid\u00e8s": 2145, "proph\u00e8": 2146, "olf\u00e8g": 2147, "Yuk": 2148, "Yugosla": 2149, "tolid\u00e8s": 2150, "Yugoslav": 2151, "stolid\u00e8s": 2152, "solf\u00e8g": 2153, "ostolid\u00e8s": 2154, "proph\u00e8t": 2155, "Uk": 2156, "Yugoslavi": 2157, "postolid\u00e8s": 2158, "Ukr": 2159, "Yugoslavia": 2160, "HU": 2161, "HUR": 2162, "Apostolid\u00e8s": 2163, "HURD": 2164, "BHU": 2165, "Ukra": 2166, "UF": 2167, "ANZACs": 2168, "UFO": 2169, "HURDA": 2170, "HURDAT": 2171, "BUF": 2172, "Ukrai": 2173, "\u0101s": 2174, "enj\u014d": 2175, "Senj\u014d": 2176, "Ukrain": 2177, "n\u0101s": 2178, "n\u0101st": 2179, "Unlike": 2180, "n\u0101sti": 2181, "\u00c6sthe": 2182, "\u00c6sthet": 2183, "subje": 2184, "subjec": 2185, "\u00c6stheti": 2186, "Unive": 2187, "\u00c6sthetic": 2188, "Univer": 2189, "subject": 2190, "obje": 2191, "objec": 2192, "Univers": 2193, "Unde": 2194, "Under": 2195, "Universi": 2196, "object": 2197, "muzzle": 2198, "Universit": 2199, "Unlimite": 2200, "University": 2201, "Unlimited": 2202, "Ju\u00e1re": 2203, "Ju\u00e1rez": 2204, "Universiti": 2205, "G\u00f3me": 2206, "G\u00f3mez": 2207, "Gonz\u00e1le": 2208, "Gonz\u00e1lez": 2209, "Square": 2210, "F\u00f6rste": 2211, "F\u00f6rster": 2212, "eli\u0107": 2213, "veli\u0107": 2214, "J\u00e9r\u00f4me": 2215, "aveli\u0107": 2216, "YouTube": 2217, "Paveli\u0107": 2218, "es\u0142aw": 2219, "les\u0142aw": 2220, "\u017be": 2221, "\u017bel": 2222, "oles\u0142aw": 2223, "e\u0144ski": 2224, "\u017bele\u0144ski": 2225, "Boles\u0142aw": 2226, "W\u0142odzimie": 2227, "W\u0142odzimier": 2228, "\u00d6se": 2229, "W\u0142odzimierz": 2230, "\u00d6sel": 2231, "puzzle": 2232, "puzzles": 2233, "R\u00e9solue": 2234, "L\u00f3pe": 2235, "L\u00f3pez": 2236, "G\u00e1lve": 2237, "G\u00e1lvez": 2238, "K\u00f6ppe": 2239, "K\u00f6ppen": 2240, "eyonc\u00e9": 2241, "Beyonc\u00e9": 2242, "Universitie": 2243, "Universities": 2244, "H\u00e4me": 2245, "H\u00e4mee": 2246, "H\u00e4meen": 2247, "ensv\u00e4rd": 2248, "H\u00e4meenm": 2249, "rensv\u00e4rd": 2250, "e\u015f": 2251, "hrensv\u00e4rd": 2252, "re\u015f": 2253, "H\u00e4meenma": 2254, "fran\u00e7aise": 2255, "Ehrensv\u00e4rd": 2256, "ure\u015f": 2257, "H\u00e4meenmaa": 2258, "erg\u00e9": 2259, "Herg\u00e9": 2260, "Mure\u015f": 2261, "Vingti\u00e8me": 2262, "Si\u00e8cle": 2263, "eno\u00eet": 2264, "Beno\u00eet": 2265, "TVLine": 2266, "'\u00eatre": 2267, "fa\u00e7ade": 2268, "Azzare": 2269, "Azzarel": 2270, "Go\u00e2ve": 2271, "Azzarell": 2272, "M\u00e9de": 2273, "M\u00e9dec": 2274, "Azzarello": 2275, "Fronti\u00e8re": 2276, "Fronti\u00e8res": 2277, "M\u00e9deci": 2278, "Rivi\u00e8re": 2279, "M\u00e9decin": 2280, "Jule": 2281, "M\u00e9decins": 2282, "Jules": 2283, "G\u00fcnthe": 2284, "G\u00fcnther": 2285, "R\u00e9gime": 2286, "R\u00e9gimen": 2287, "\u00cele": 2288, "R\u00e9giment": 2289, "Iphig\u00e9nie": 2290, "Sh\u014dne": 2291, "Sh\u014dnen": 2292, "K\u014de": 2293, "K\u014den": 2294, "Eug\u00e8ne": 2295, "K\u014denj": 2296, "proph\u00e8te": 2297, "K\u014denji": 2298, "J\u00fcrge": 2299, "J\u00fcrgen": 2300, "T\u00f8nsbe": 2301, "T\u00f8nsber": 2302, "\u00c5le": 2303, "T\u00f8nsberg": 2304, "\u00c5les": 2305, "er\u00f8": 2306, "\u00c5lesu": 2307, "der\u00f8": 2308, "ider\u00f8": 2309, "\u00c5lesun": 2310, "Wider\u00f8": 2311, "\u00c5lesund": 2312, "Wider\u00f8e": 2313, "Fran\u00e7aise": 2314, "Wi\u015bniowie": 2315, "Wi\u015bniowieck": 2316, "\u00c6the": 2317, "\u00c6thel": 2318, "Wi\u015bniowiecki": 2319, "129Xe": 2320, "\u00c6thelr": 2321, "133Xe": 2322, "\u00c6thelre": 2323, "\u00c6thelred": 2324, "135Xe": 2325, "er\u00f3n": 2326, "Per\u00f3n": 2327, "P\u00e9re": 2328, "P\u00e9rez": 2329, "der\u00f3n": 2330, "R\u00e4ikk\u00f6ne": 2331, "lder\u00f3n": 2332, "R\u00e4ikk\u00f6nen": 2333, "Rh\u00f4ne": 2334, "alder\u00f3n": 2335, "C\u00e9cile": 2336, "Calder\u00f3n": 2337, "Pozi\u00e8re": 2338, "Pozi\u00e8res": 2339, "er\u00eas": 2340, "her\u00eas": 2341, "ev\u00e5l": 2342, "cher\u00eas": 2343, "lev\u00e5l": 2344, "T\u00e5se": 2345, "llev\u00e5l": 2346, "ncher\u00eas": 2347, "Ullev\u00e5l": 2348, "T\u00e5sen": 2349, "ancher\u00eas": 2350, "Puzzle": 2351, "Tancher\u00eas": 2352, "Corbi\u00e8re": 2353, "Corbi\u00e8res": 2354, "N\u00eeme": 2355, "N\u00eemes": 2356, "e\u0107a": 2357, "le\u0107a": 2358, "erkovi\u0107i": 2359, "Berkovi\u0107i": 2360, "ile\u0107a": 2361, "eti\u0107": 2362, "Bile\u0107a": 2363, "ceti\u0107": 2364, "Plu\u017eine": 2365, "nceti\u0107": 2366, "Kino\u02bbole": 2367, "anceti\u0107": 2368, "\u00d8ste": 2369, "ranceti\u0107": 2370, "Franceti\u0107": 2371, "\u00d8ster": 2372, "esm\u0117": 2373, "\u00d8sterd": 2374, "iesm\u0117": 2375, "Schr\u00f6te": 2376, "giesm\u0117": 2377, "Schr\u00f6ter": 2378, "\u00d8sterda": 2379, "Unicode": 2380, "\u00d8sterdal": 2381, "M\u00fcgge": 2382, "\u00d8sterdale": 2383, "\u00d8sterdalen": 2384, "e\u00f2": 2385, "he\u00f2": 2386, "ek\u0101ntav\u0101da": 2387, "Che\u00f2": 2388, "nek\u0101ntav\u0101da": 2389, "ek\u0101nta": 2390, "Anek\u0101ntav\u0101da": 2391, "nek\u0101nta": 2392, "anek\u0101ntav\u0101da": 2393, "anek\u0101nta": 2394, "k\u1e63e": 2395, "k\u1e63et": 2396, "evalaj\u00f1\u0101na": 2397, "kevalaj\u00f1\u0101na": 2398, "k\u1e63etr": 2399, "ela\u1e6d\u1e6dhaputta": 2400, "Bela\u1e6d\u1e6dhaputta": 2401, "k\u1e63etra": 2402, "Ry\u016bnosuke": 2403, "M\u00e1rque": 2404, "M\u00e1rquez": 2405, "S\u00e1e": 2406, "S\u00e1en": 2407, "Mo\u00e7ambique": 2408, "S\u00e1enz": 2409, "en\u00e7o": 2410, "ren\u00e7o": 2411, "M\u00eal\u00e9e": 2412, "uren\u00e7o": 2413, "erg\u00f6tz": 2414, "berg\u00f6tz": 2415, "ouren\u00e7o": 2416, "Eberg\u00f6tz": 2417, "Louren\u00e7o": 2418, "Eberg\u00f6tze": 2419, "Eberg\u00f6tzen": 2420, "D\u00fcsse": 2421, "D\u00fcssel": 2422, "N\u00f6lde": 2423, "N\u00f6ldek": 2424, "D\u00fcsseld": 2425, "M\u00fcnche": 2426, "D\u00fcsseldo": 2427, "M\u00fcnchen": 2428, "N\u00f6ldeke": 2429, "D\u00fcsseldor": 2430, "M\u00fcnchene": 2431, "D\u00fcsseldorf": 2432, "M\u00fcnchener": 2433, "Squirtle": 2434, "solf\u00e8ge": 2435, "exp": 2436, "1930s": 2437, "azz": 2438, "PTV": 2439, "Yog": 2440, "jazz": 2441, "Jazz": 2442, "'azz": 2443, "Mazz": 2444, "Yogy": 2445, "uxp": 2446, "Tuxp": 2447, "Yogi": 2448, "Yogis": 2449, "Tuxpa": 2450, "Yogish": 2451, "Tuxpan": 2452, "'azza": 2453, "Yogishv": 2454, "'azzam": 2455, "Yogya": 2456, "Yogyak": 2457, "Yogishva": 2458, "Yogishvar": 2459, "Yogyaka": 2460, "Yogyakar": 2461, "Yogishvara": 2462, "Mazza": 2463, "Yogyakart": 2464, "iazz": 2465, "Piazz": 2466, "azzl": 2467, "dazzl": 2468, "dazzli": 2469, "Piazzi": 2470, "dazzlin": 2471, "Yogyakarta": 2472, "zzy": 2473, "dazzling": 2474, "izzy": 2475, "ozz": 2476, "av\u0101da": 2477, "Pozz": 2478, "yav\u0101da": 2479, "dizzy": 2480, "izz": 2481, "Rizz": 2482, "ozzl": 2483, "Pozzo": 2484, "Pozzob": 2485, "lizz": 2486, "Rizzi": 2487, "zzo": 2488, "nozzl": 2489, "ayav\u0101da": 2490, "Blizz": 2491, "Nayav\u0101da": 2492, "izzl": 2493, "izzly": 2494, "rizzly": 2495, "Pozzobo": 2496, "zzon": 2497, "grizzly": 2498, "zzoni": 2499, "Pozzobon": 2500, "zzonic": 2501, "nayav\u0101da": 2502, "Blizza": 2503, "Pozzobone": 2504, "Pozzobonel": 2505, "Blizzar": 2506, "zzonico": 2507, "Pozzobonell": 2508, "Blizzard": 2509, "ezzonico": 2510, "Rezzonico": 2511, "Pozzobonelli": 2512, "nozzle": 2513, "o\u0142": 2514, "Jun": 2515, "Jun\u00ed": 2516, "ko\u0142": 2517, "a\u0142": 2518, "ha\u0142": 2519, "iko\u0142": 2520, "Jun\u00edn": 2521, "Miko\u0142": 2522, "cha\u0142": 2523, "icha\u0142": 2524, "Miko\u0142a": 2525, "Jup": 2526, "Unite": 2527, "BC": 2528, "Miko\u0142aj": 2529, "Micha\u0142": 2530, "BCE": 2531, "NBC": 2532, "BBC": 2533, "ABC": 2534, "United": 2535, "Jupi": 2536, "CNBC": 2537, "BCS": 2538, "Jupit": 2539, "IBC": 2540, "Unity": 2541, "Jupite": 2542, "'B": 2543, "Jupiter": 2544, "'Br": 2545, "Usta\u0161e": 2546, "1920s": 2547, "FI": 2548, "n\u00e1": 2549, "FIF": 2550, "FIFA": 2551, "FIT": 2552, "FIFP": 2553, "FIA": 2554, "FIB": 2555, "FIBA": 2556, "FIS": 2557, "FFI": 2558, "FISA": 2559, "FIE": 2560, "BFI": 2561, "FIES": 2562, "FIFPr": 2563, "'Bri": 2564, "FITs": 2565, "FIFPro": 2566, "in\u00e1": 2567, "Usta\u0161a": 2568, "'Brie": 2569, "v\u00e1": 2570, "rn\u00e1": 2571, "v\u00e1n": 2572, "nin\u00e1": 2573, "onin\u00e1": 2574, "rn\u00e1n": 2575, "Tonin\u00e1": 2576, "'Brien": 2577, "rn\u00e1nd": 2578, "tv\u00e1n": 2579, "stv\u00e1n": 2580, "ern\u00e1nd": 2581, "Fern\u00e1nd": 2582, "Istv\u00e1n": 2583, "Fern\u00e1nde": 2584, "Fern\u00e1ndez": 2585, "ern\u00e1n": 2586, "m\u00e1": 2587, "Hern\u00e1n": 2588, "um\u00e1": 2589, "Zum\u00e1": 2590, "m\u00e1s": 2591, "Zum\u00e1r": 2592, "om\u00e1s": 2593, "b\u00e1": 2594, "Tom\u00e1s": 2595, "lb\u00e1": 2596, "lb\u00e1s": 2597, "Zum\u00e1rr": 2598, "Zum\u00e1rra": 2599, "Zum\u00e1rrag": 2600, "alb\u00e1s": 2601, "\u00e1n": 2602, "Zz": 2603, "Uppe": 2604, "Unk": 2605, "1880s": 2606, "Xb": 2607, "RE": 2608, "Balb\u00e1s": 2609, "REL": 2610, "FREL": 2611, "FRELI": 2612, "VRE": 2613, "FRELIM": 2614, "TRE": 2615, "AVRE": 2616, "FRELIMO": 2617, "CTRE": 2618, "DRE": 2619, "ECTRE": 2620, "DRES": 2621, "PECTRE": 2622, "ADRES": 2623, "CRE": 2624, "Upper": 2625, "Uppi": 2626, "Xbo": 2627, "Unkn": 2628, "Zum\u00e1rraga": 2629, "Xbox": 2630, "MADRES": 2631, "SPECTRE": 2632, "Unkno": 2633, "Uppin": 2634, "Zza": 2635, "l\u00e1": 2636, "t\u00e1n": 2637, "ER": 2638, "271s": 2639, "UH": 2640, "OMADRES": 2641, "UHF": 2642, "ERA": 2643, "Unknow": 2644, "Zzap": 2645, "Upping": 2646, "ll\u00e1": 2647, "'ll\u00e1": 2648, "COMADRES": 2649, "Uppingh": 2650, "u'll\u00e1": 2651, "'u'll\u00e1": 2652, "'u'll\u00e1h": 2653, "c\u00e1n": 2654, "Unknown": 2655, "at\u00e1n": 2656, "cat\u00e1n": 2657, "r\u00e1n": 2658, "ac\u00e1n": 2659, "Yucat\u00e1n": 2660, "oac\u00e1n": 2661, "ar\u00e1n": 2662, "uar\u00e1n": 2663, "hoac\u00e1n": 2664, "Uppingha": 2665, "271st": 2666, "1840s": 2667, "June": 2668, "\u00edb": 2669, "Cuar\u00e1n": 2670, "Uppingham": 2671, "choac\u00e1n": 2672, "Junk": 2673, "a\u00edb": 2674, "r\u00ed": 2675, "jus": 2676, "ML": 2677, "jo": 2678, "38B": 2679, "Zr\u00ed": 2680, "Djok": 2681, "AML": 2682, "MLB": 2683, "RML": 2684, "PML": 2685, "TML": 2686, "la\u00edb": 2687, "r\u00edg": 2688, "HTML": 2689, "mla\u00edb": 2690, "r\u00edgu": 2691, "Amla\u00edb": 2692, "dr\u00edgu": 2693, "MLA": 2694, "ichoac\u00e1n": 2695, "odr\u00edgu": 2696, "Rodr\u00edgu": 2697, "Michoac\u00e1n": 2698, "Djoko": 2699, "Zr\u00edn": 2700, "\u00edk": 2701, "ar\u00ed": 2702, "Mar\u00ed": 2703, "v\u00edk": 2704, "Djokov": 2705, "Zr\u00edny": 2706, "Mar\u00eda": 2707, "Zr\u00ednyi": 2708, "Djokovi": 2709, "av\u00edk": 2710, "just": 2711, "Oj": 2712, "jux": 2713, "Junke": 2714, "jav\u00edk": 2715, "Djokovic": 2716, "Junker": 2717, "Oji": 2718, "juxt": 2719, "Rodr\u00edgue": 2720, "MLs": 2721, "Rodr\u00edguez": 2722, "kjav\u00edk": 2723, "Ojib": 2724, "Junkers": 2725, "juxta": 2726, "Dje": 2727, "Juny": 2728, "38A": 2729, "ykjav\u00edk": 2730, "Ojibw": 2731, "juxtap": 2732, "Djed": 2733, "Junyi": 2734, "Djedk": 2735, "juxtapo": 2736, "Dji": 2737, "Ojibwe": 2738, "Djib": 2739, "juxtapos": 2740, "Dja": 2741, "Djibo": 2742, "Djan": 2743, "Djedka": 2744, "eykjav\u00edk": 2745, "juxtaposi": 2746, "231s": 2747, "OT": 2748, "Reykjav\u00edk": 2749, "DOT": 2750, "TOT": 2751, "MDOT": 2752, "NOT": 2753, "KDOT": 2754, "FOT": 2755, "NOTS": 2756, "IDOT": 2757, "RIDOT": 2758, "AOT": 2759, "FOTA": 2760, "ADOT": 2761, "SDOT": 2762, "Djibou": 2763, "Djedkar": 2764, "231st": 2765, "juxtapose": 2766, "Universa": 2767, "1970s": 2768, "\u00edn": 2769, "WSDOT": 2770, "Universal": 2771, "juxtaposed": 2772, "t\u00edn": 2773, "Djibout": 2774, "st\u00edn": 2775, "Universe": 2776, "ust\u00edn": 2777, "rt\u00edn": 2778, "Djibouti": 2779, "Djedkare": 2780, "\u00edl": 2781, "1990s": 2782, "job": 2783, "jum": 2784, "p\u00e9": 2785, "Op\u00e9": 2786, "jump": 2787, "gust\u00edn": 2788, "art\u00edn": 2789, "Mart\u00edn": 2790, "Agust\u00edn": 2791, "mp\u00e9": 2792, "Op\u00e9r": 2793, "s\u00edl": 2794, "Imp\u00e9": 2795, "p\u00e9d": 2796, "s\u00edli": 2797, "Op\u00e9ra": 2798, "p\u00e9r": 2799, "op\u00e9r": 2800, "a\u00edl": 2801, "Ma\u00edl": 2802, "as\u00edli": 2803, "ras\u00edli": 2804, "Bras\u00edli": 2805, "Bras\u00edlia": 2806, "op\u00e9ra": 2807, "p\u00e9da": 2808, "Imp\u00e9t": 2809, "m\u00ed": 2810, "jor": 2811, "The": 2812, "361s": 2813, "Imp\u00e9tu": 2814, "p\u00e9dal": 2815, "m\u00edr": 2816, "joy": 2817, "jok": 2818, "p\u00e9dali": 2819, "njoy": 2820, "am\u00edr": 2821, "Ram\u00edr": 2822, "ajor": 2823, "361st": 2824, "Tjo": 2825, "Major": 2826, "major": 2827, "jory": 2828, "fjor": 2829, "fjord": 2830, "rjory": 2831, "jord": 2832, "arjory": 2833, "jou": 2834, "Marjory": 2835, "sjord": 2836, "rjor": 2837, "jour": 2838, "rjori": 2839, "nsjord": 2840, "njou": 2841, "onjou": 2842, "journ": 2843, "joi": 2844, "ansjord": 2845, "Honjou": 2846, "jock": 2847, "ransjord": 2848, "join": 2849, "Transjord": 2850, "Transjorda": 2851, "Transjordan": 2852, "arjori": 2853, "enjoy": 2854, "Marjori": 2855, "jocke": 2856, "jockey": 2857, "Imp\u00e9tue": 2858, "Imp\u00e9tueu": 2859, "Marjorie": 2860, "Imp\u00e9tueux": 2861, "p\u00e9dalie": 2862, "p\u00e9dalier": 2863, "Ram\u00edre": 2864, "Ram\u00edrez": 2865, "efjord": 2866, "jow": 2867, "Tjoa": 2868, "defjord": 2869, "ajow": 2870, "rajow": 2871, "ndefjord": 2872, "Krajow": 2873, "Krajowa": 2874, "andefjord": 2875, "Tjoe": 2876, "njo": 2877, "Sandefjord": 2878, "onjoin": 2879, "Tjoet": 2880, "anjo": 2881, "banjo": 2882, "conjoin": 2883, "ranjo": 2884, "conjoine": 2885, "Franjo": 2886, "conjoined": 2887, "enjo": 2888, "joh": 2889, "henjo": 2890, "john": 2891, "ohenjo": 2892, "ejohn": 2893, "djo": 2894, "Mohenjo": 2895, "lejohn": 2896, "rdjo": 2897, "djoini": 2898, "klejohn": 2899, "djoinin": 2900, "djoining": 2901, "iklejohn": 2902, "adjoining": 2903, "ardjo": 2904, "eiklejohn": 2905, "jos": 2906, "Meiklejohn": 2907, "hardjo": 2908, "ojo": 2909, "jost": 2910, "joke": 2911, "journa": 2912, "Thi": 2913, "s\u00e1": 2914, "Rojo": 2915, "journal": 2916, "ls\u00e1": 2917, "jostl": 2918, "This": 2919, "joki": 2920, "ols\u00e1": 2921, "ahardjo": 2922, "t\u00e1": 2923, "Tols\u00e1": 2924, "Rahardjo": 2925, "jostli": 2926, "ot\u00e1": 2927, "jokin": 2928, "joking": 2929, "got\u00e1": 2930, "jostlin": 2931, "journali": 2932, "Thir": 2933, "journe": 2934, "AVREs": 2935, "journey": 2936, "jostling": 2937, "Third": 2938, "journalis": 2939, "ogot\u00e1": 2940, "Thin": 2941, "Unifi": 2942, "Bogot\u00e1": 2943, "Thing": 2944, "Unifo": 2945, "Thirt": 2946, "Thirty": 2947, "Unifor": 2948, "journalist": 2949, "Unifie": 2950, "Things": 2951, "dizzyi": 2952, "journalism": 2953, "Uniform": 2954, "Unified": 2955, "dizzyin": 2956, "Thirte": 2957, "Yuki": 2958, "o\u00e3o": 2959, "Jo\u00e3o": 2960, "Yukiz": 2961, "dizzying": 2962, "Uniformi": 2963, "Yuko": 2964, "t\u00e3o": 2965, "Thirtee": 2966, "1870s": 2967, "juxtaposin": 2968, "juxtaposing": 2969, "Yukizu": 2970, "st\u00e3o": 2971, "Thirteen": 2972, "Yukizuk": 2973, "Yukon": 2974, "ast\u00e3o": 2975, "juxtaposit": 2976, "Gast\u00e3o": 2977, "juxtapositi": 2978, "Yukizuki": 2979, "juxtapositio": 2980, "Uniformit": 2981, "n\u00ed": 2982, "Ul": 2983, "UST": 2984, "NL": 2985, "1850s": 2986, "NUST": 2987, "INUST": 2988, "MINUST": 2989, "MINUSTA": 2990, "NLF": 2991, "MINUSTAH": 2992, "SNL": 2993, "DNL": 2994, "Uniformity": 2995, "NLD": 2996, "Ulj": 2997, "NLDS": 2998, "Uly": 2999, "NLC": 3000, "NLCS": 3001, "ANL": 3002, "ZANL": 3003, "ZANLA": 3004, "Ulys": 3005, "Ulji": 3006, "juxtaposition": 3007, "h\u00ed": 3008, "n\u00edt": 3009, "NU": 3010, "NUJ": 3011, "SNU": 3012, "Ulyss": 3013, "\u00eds": 3014, "Uljin": 3015, "ah\u00ed": 3016, "Bah\u00ed": 3017, "\u00edsi": 3018, "\u00edsim": 3019, "Bah\u00eda": 3020, "\u00edsima": 3021, "t\u00edsima": 3022, "Ulysse": 3023, "Ulysses": 3024, "nt\u00edsima": 3025, "en\u00edt": 3026, "Ben\u00edt": 3027, "ant\u00edsima": 3028, "Sant\u00edsima": 3029, "Ben\u00edte": 3030, "JU": 3031, "sy\u0101t": 3032, "Ben\u00edtez": 3033, "JUI": 3034, "sy\u0101n": 3035, "JUIC": 3036, "Uz": 3037, "Yue": 3038, "In": 3039, "767s": 3040, "Jung": 3041, "NX": 3042, "JUICE": 3043, "Uzb": 3044, "Jungl": 3045, "IG": 3046, "Junc": 3047, "IGN": 3048, "RIG": 3049, "TRIG": 3050, "TRIGA": 3051, "Junct": 3052, "Uzbe": 3053, "Uzbek": 3054, "Juncti": 3055, "Jungle": 3056, "Uzbeki": 3057, "Junctio": 3058, "Uzbekis": 3059, "Junction": 3060, "Juni": 3061, "UG": 3062, "UGO": 3063, "Junio": 3064, "Uzbekist": 3065, "Junior": 3066, "Uzbekista": 3067, "Juno": 3068, "1830s": 3069, "th": 3070, "Exc": 3071, "2D": 3072, "716th": 3073, "Exch": 3074, "156th": 3075, "130th": 3076, "19th": 3077, "19th-": 3078, "555th": 3079, "Uzbekistan": 3080, "127th": 3081, "Excha": 3082, "Junu": 3083, "Exchan": 3084, "Exchang": 3085, "Junun": 3086, "186th": 3087, "Ch": 3088, "116th": 3089, "Zh": 3090, "Zho": 3091, "57th": 3092, "Zhou": 3093, "Zha": 3094, "Wh": 3095, "Exchange": 3096, "20th": 3097, "Zhu": 3098, "Zhan": 3099, "69th": 3100, "Zhang": 3101, "Zhao": 3102, "17th": 3103, "18th": 3104, "Yokoh": 3105, "Yokoha": 3106, "ch": 3107, "CTV": 3108, "WII": 3109, "Zhi": 3110, "WWII": 3111, "CCTV": 3112, "Yokoham": 3113, "Zhis": 3114, "wh": 3115, "Zhe": 3116, "ch\u00e9": 3117, "Zhej": 3118, "Zhish": 3119, "ch\u00e9d": 3120, "Zheji": 3121, "ich\u00e9": 3122, "lich\u00e9": 3123, "clich\u00e9": 3124, "Zhejia": 3125, "Zhejian": 3126, "Yokohama": 3127, "Zhishe": 3128, "Sh": 3129, "Zhejiang": 3130, "'Sh": 3131, "Zhishen": 3132, "'Sha": 3133, "gh": 3134, "NC": 3135, "HNC": 3136, "NCA": 3137, "NCAA": 3138, "NCAP": 3139, "NCO": 3140, "NCH": 3141, "ugh": 3142, "NCHE": 3143, "ANCHE": 3144, "NCOs": 3145, "'Shar": 3146, "igh": 3147, "ough": 3148, "LANCHE": 3149, "Though": 3150, "Hugh": 3151, "ALANCHE": 3152, "High": 3153, "Ogh": 3154, "VALANCHE": 3155, "Highw": 3156, "Ligh": 3157, "AVALANCHE": 3158, "high": 3159, "Light": 3160, "though": 3161, "Oghr": 3162, "Nigh": 3163, "Night": 3164, "ight": 3165, "Eighth": 3166, "ighb": 3167, "ught": 3168, "Lightho": 3169, "Mugh": 3170, "Highbu": 3171, "Lighthou": 3172, "lthough": 3173, "Highbur": 3174, "ighbo": 3175, "Although": 3176, "Highbury": 3177, "Lighthous": 3178, "ighbou": 3179, "Highto": 3180, "highw": 3181, "rough": 3182, "aught": 3183, "Through": 3184, "brought": 3185, "Hightow": 3186, "Rough": 3187, "Drought": 3188, "through": 3189, "bought": 3190, "oughby": 3191, "loughby": 3192, "wrought": 3193, "fought": 3194, "lloughby": 3195, "drought": 3196, "ighbor": 3197, "ighborh": 3198, "ighbour": 3199, "Hought": 3200, "illoughby": 3201, "daught": 3202, "Willoughby": 3203, "Caught": 3204, "ighbourh": 3205, "caught": 3206, "Naught": 3207, "ighborho": 3208, "Naughty": 3209, "ighborhoo": 3210, "ighborhood": 3211, "ighbourho": 3212, "ighbourhoo": 3213, "ighbourhood": 3214, "Houghto": 3215, "sought": 3216, "nough": 3217, "although": 3218, "Lough": 3219, "Loughb": 3220, "Hough": 3221, "Enough": 3222, "dnought": 3223, "Houghton": 3224, "tough": 3225, "Loughbo": 3226, "Highwa": 3227, "Loughborough": 3228, "oughb": 3229, "Highway": 3230, "doughb": 3231, "roughbr": 3232, "oroughbr": 3233, "Thoroughbr": 3234, "doughbo": 3235, "highwa": 3236, "highway": 3237, "doughboy": 3238, "adnought": 3239, "augh": 3240, "Vaugh": 3241, "Laugh": 3242, "Maugh": 3243, "laugh": 3244, "Mugha": 3245, "Slaught": 3246, "Mughal": 3247, "taught": 3248, "Vaugha": 3249, "raught": 3250, "Vaughan": 3251, "Oghra": 3252, "Oghrat": 3253, "draught": 3254, "Maugha": 3255, "Maugham": 3256, "fraught": 3257, "Oghrati": 3258, "'Shara": 3259, "Bigh": 3260, "Roughl": 3261, "adnoughts": 3262, "Eight": 3263, "Roughly": 3264, "traught": 3265, "Bigho": 3266, "Oghratin": 3267, "ighborhoods": 3268, "straught": 3269, "Bighor": 3270, "Oghratina": 3271, "istraught": 3272, "Bighorn": 3273, "slaught": 3274, "Througho": 3275, "daughte": 3276, "Throughou": 3277, "distraught": 3278, "daughter": 3279, "eigh": 3280, "Leigh": 3281, "Neighbor": 3282, "weigh": 3283, "lighth": 3284, "Throughout": 3285, "Neighbors": 3286, "ightweight": 3287, "leigh": 3288, "height": 3289, "lightho": 3290, "lighthou": 3291, "lightweight": 3292, "rleigh": 3293, "ightho": 3294, "neighbor": 3295, "urleigh": 3296, "lighthous": 3297, "ighthoo": 3298, "neighbourhood": 3299, "Burleigh": 3300, "ighthood": 3301, "nighthood": 3302, "knighthood": 3303, "neighbour": 3304, "Height": 3305, "eadnought": 3306, "Heights": 3307, "readnought": 3308, "dreadnought": 3309, "Slaughte": 3310, "Slaughter": 3311, "slaughte": 3312, "slaughter": 3313, "lighthouse": 3314, "laughte": 3315, "laughter": 3316, "Thoroughbre": 3317, "Thoroughbred": 3318, "Lighthouse": 3319, "Hightowe": 3320, "light": 3321, "thighs": 3322, "highlight": 3323, "Highlight": 3324, "Flight": 3325, "Hightower": 3326, "Highlighti": 3327, "Highlightin": 3328, "flight": 3329, "Fight": 3330, "Highlighting": 3331, "Right": 3332, "neighbourhoods": 3333, "fight": 3334, "Laughi": 3335, "enough": 3336, "Laughs": 3337, "onough": 3338, "Laughin": 3339, "neighbouri": 3340, "roughl": 3341, "Thu": 3342, "yweight": 3343, "Donough": 3344, "vyweight": 3345, "roughly": 3346, "Laughing": 3347, "neighbourin": 3348, "neighbours": 3349, "neighbouring": 3350, "cDonough": 3351, "avyweight": 3352, "Thun": 3353, "Brough": 3354, "McDonough": 3355, "Thund": 3356, "Thus": 3357, "orough": 3358, "eavyweight": 3359, "Heavyweight": 3360, "Borough": 3361, "heavyweight": 3362, "borough": 3363, "thoroughly": 3364, "Thur": 3365, "thorough": 3366, "Thut": 3367, "Thurs": 3368, "lborough": 3369, "Thutm": 3370, "Thursd": 3371, "rlborough": 3372, "thoroughf": 3373, "brough": 3374, "Thunde": 3375, "Rights": 3376, "ygh": 3377, "Uygh": 3378, "Uyghu": 3379, "sbrough": 3380, "Thunder": 3381, "Thutmo": 3382, "thoroughfa": 3383, "Thunderb": 3384, "Thutmos": 3385, "thoroughfar": 3386, "Uyghur": 3387, "Thunderbi": 3388, "arlborough": 3389, "Marlborough": 3390, "Thunderbir": 3391, "Thursda": 3392, "Thursday": 3393, "Thunderbird": 3394, "aygh": 3395, "daygh": 3396, "Thunderbirds": 3397, "Udaygh": 3398, "Udaygha": 3399, "Uyghurs": 3400, "thoroughfare": 3401, "Udayghad": 3402, "esbrough": 3403, "lesbrough": 3404, "Thutmose": 3405, "trough": 3406, "ng": 3407, "Ingh": 3408, "CNY": 3409, "ZN": 3410, "whi": 3411, "ZND": 3412, "which": 3413, "Young": 3414, "dlesbrough": 3415, "ZNDH": 3416, "ddlesbrough": 3417, "Eng": 3418, "whil": 3419, "Ingr": 3420, "Ingha": 3421, "ingh": 3422, "Underg": 3423, "ckingh": 3424, "Singh": 3425, "uckingh": 3426, "Ingham": 3427, "Ingv": 3428, "Engl": 3429, "Buckingh": 3430, "Ingl": 3431, "Bingh": 3432, "mingh": 3433, "Undergr": 3434, "whit": 3435, "iddlesbrough": 3436, "Middlesbrough": 3437, "rmingh": 3438, "Undergro": 3439, "Engi": 3440, "Undergrou": 3441, "Engin": 3442, "irmingh": 3443, "Birmingh": 3444, "Undergroun": 3445, "Underground": 3446, "Birmingha": 3447, "Birmingham": 3448, "Bingha": 3449, "Bingham": 3450, "Buckingha": 3451, "Buckingham": 3452, "Binghamt": 3453, "Ingva": 3454, "ing": 3455, "whis": 3456, "whisk": 3457, "fighting": 3458, "neighboring": 3459, "laughing": 3460, "Fighting": 3461, "Nighting": 3462, "Yung": 3463, "weighing": 3464, "whip": 3465, "whim": 3466, "jumping": 3467, "Yong": 3468, "Ingval": 3469, "Yongd": 3470, "Ingvald": 3471, "King": 3472, "highlighting": 3473, "whist": 3474, "whistl": 3475, "joining": 3476, "Binghamto": 3477, "whistling": 3478, "Binghamton": 3479, "Yongdo": 3480, "Yongdok": 3481, "king": 3482, "Nightinga": 3483, "Kingd": 3484, "Nightingal": 3485, "Kingdo": 3486, "ingha": 3487, "jung": 3488, "neighbors": 3489, "Kingdom": 3490, "ingham": 3491, "jungl": 3492, "tingh": 3493, "ttingham": 3494, "stingh": 3495, "ottingham": 3496, "Nottingham": 3497, "stingho": 3498, "ningham": 3499, "Engine": 3500, "stinghou": 3501, "lingham": 3502, "nningham": 3503, "whistle": 3504, "unningham": 3505, "llingham": 3506, "stinghous": 3507, "jungle": 3508, "Cunningham": 3509, "illingham": 3510, "anningham": 3511, "whiske": 3512, "Gillingham": 3513, "Manningham": 3514, "whiskey": 3515, "estinghous": 3516, "Westinghous": 3517, "Westinghouse": 3518, "Nightingale": 3519, "Ingle": 3520, "whims": 3521, "Ingles": 3522, "whimsi": 3523, "white": 3524, "whimsic": 3525, "whiti": 3526, "whitis": 3527, "Inglesi": 3528, "whimsica": 3529, "while": 3530, "whitish": 3531, "whimsical": 3532, "Inglesid": 3533, "whils": 3534, "Enginee": 3535, "whilst": 3536, "Engineer": 3537, "Ingleside": 3538, "Nottinghams": 3539, "Nottinghamsh": 3540, "Engineering": 3541, "Engr": 3542, "whistles": 3543, "Ang": 3544, "Nottinghamshi": 3545, "Engra": 3546, "Enge": 3547, "ong": 3548, "Zongh": 3549, "Engrav": 3550, "Engel": 3551, "Song": 3552, "Engelm": 3553, "Long": 3554, "rongh": 3555, "trongh": 3556, "Nottinghamshir": 3557, "Cong": 3558, "strongh": 3559, "Kong": 3560, "zong": 3561, "strongho": 3562, "Engelma": 3563, "stronghol": 3564, "Engelman": 3565, "Zongha": 3566, "Zong": 3567, "Zongw": 3568, "stronghold": 3569, "Engelmann": 3570, "Zonghan": 3571, "Zongwa": 3572, "long": 3573, "Zongwang": 3574, "angh": 3575, "song": 3576, "Engrave": 3577, "Shangh": 3578, "Langh": 3579, "Tong": 3580, "mong": 3581, "nghi": 3582, "Engraver": 3583, "Among": 3584, "Hong": 3585, "nghis": 3586, "Chong": 3587, "Mong": 3588, "among": 3589, "Mongo": 3590, "Shangha": 3591, "rong": 3592, "Pong": 3593, "Mongol": 3594, "Shanghai": 3595, "trong": 3596, "wrong": 3597, "Wrong": 3598, "strong": 3599, "Strong": 3600, "cong": 3601, "kong": 3602, "Gong": 3603, "congr": 3604, "Pongo": 3605, "Mongoli": 3606, "Pongol": 3607, "Pongs": 3608, "Mongols": 3609, "Pongsa": 3610, "Pongsak": 3611, "Mongolia": 3612, "Pongola": 3613, "Bong": 3614, "enghis": 3615, "Genghis": 3616, "Pongolap": 3617, "Bonga": 3618, "Nottinghamshire": 3619, "Pongolapo": 3620, "Langhe": 3621, "Langhel": 3622, "Pongolapoo": 3623, "ekong": 3624, "Mekong": 3625, "Langhell": 3626, "Pongolapoor": 3627, "congre": 3628, "congreg": 3629, "Pongolapoort": 3630, "congra": 3631, "Langhelle": 3632, "Congr": 3633, "Along": 3634, "objecti": 3635, "objectiv": 3636, "congrat": 3637, "congres": 3638, "congrega": 3639, "Congre": 3640, "Congo": 3641, "congratu": 3642, "congregat": 3643, "congress": 3644, "congratul": 3645, "Congres": 3646, "congregati": 3647, "congressm": 3648, "objectio": 3649, "Congreg": 3650, "Congress": 3651, "congressi": 3652, "objection": 3653, "congregatio": 3654, "congratula": 3655, "congratulat": 3656, "objections": 3657, "congregation": 3658, "congressio": 3659, "Congrega": 3660, "Congregat": 3661, "congratulati": 3662, "congression": 3663, "congressma": 3664, "objective": 3665, "Congregati": 3666, "congressman": 3667, "congratulatio": 3668, "congressiona": 3669, "congregate": 3670, "Congol": 3671, "objectives": 3672, "congressional": 3673, "congregated": 3674, "congratulation": 3675, "Congregatio": 3676, "Congole": 3677, "objects": 3678, "ang": 3679, "Yang": 3680, "Yangj": 3681, "Yangz": 3682, "chang": 3683, "Yangzh": 3684, "xchang": 3685, "Kang": 3686, "Rang": 3687, "Evang": 3688, "Gang": 3689, "Lang": 3690, "Langu": 3691, "Chang": 3692, "Changing": 3693, "Thang": 3694, "congratulations": 3695, "Congoles": 3696, "ung": 3697, "Yangji": 3698, "Congregation": 3699, "changing": 3700, "angz": 3701, "Yangzho": 3702, "Yangjiang": 3703, "Hangz": 3704, "Hangzh": 3705, "Yangzhou": 3706, "Hung": 3707, "Kung": 3708, "rangz": 3709, "Hangzho": 3710, "ngth": 3711, "Shang": 3712, "Yangt": 3713, "angthong": 3714, "Yangtz": 3715, "Hangzhou": 3716, "uangthong": 3717, "Muangthong": 3718, "urangz": 3719, "angchang": 3720, "Hunga": 3721, "Bangchang": 3722, "Aurangz": 3723, "Hungar": 3724, "Hungary": 3725, "Bang": 3726, "Bangk": 3727, "Hungari": 3728, "'ung": 3729, "Wang": 3730, "ength": 3731, "Bangko": 3732, "length": 3733, "Hungaria": 3734, "change": 3735, "Bangkok": 3736, "Hungarian": 3737, "rength": 3738, "Length": 3739, "trength": 3740, "exchange": 3741, "strength": 3742, "Range": 3743, "Ranger": 3744, "exchanging": 3745, "Rangers": 3746, "Evange": 3747, "Evangel": 3748, "Congolese": 3749, "Evangeli": 3750, "Hunge": 3751, "Hunger": 3752, "Evangelis": 3753, "Yangtze": 3754, "Hungerf": 3755, "Evangelist": 3756, "Evangelin": 3757, "Aurangze": 3758, "jang": 3759, "Aurangzeb": 3760, "djang": 3761, "Hungerfo": 3762, "Evangeline": 3763, "Hungerfor": 3764, "edjang": 3765, "Oedjang": 3766, "Hungerford": 3767, "eng": 3768, "Tang": 3769, "wng": 3770, "Veng": 3771, "wngr": 3772, "owngr": 3773, "Tangy": 3774, "downgr": 3775, "Tangyi": 3776, "Tangyin": 3777, "downgra": 3778, "Peng": 3779, "Venge": 3780, "Pengu": 3781, "Vengeu": 3782, "downgrad": 3783, "Pengui": 3784, "Teng": 3785, "Tengu": 3786, "Penguin": 3787, "Vengeur": 3788, "downgrade": 3789, "downgraded": 3790, "Penguins": 3791, "angu": 3792, "oung": 3793, "acking": 3794, "young": 3795, "langu": 3796, "backing": 3797, "Chung": 3798, "Loung": 3799, "Sangu": 3800, "loung": 3801, "angul": 3802, "Sangui": 3803, "Lacking": 3804, "fung": 3805, "langua": 3806, "languag": 3807, "vangu": 3808, "fungu": 3809, "langui": 3810, "Sanguin": 3811, "Bung": 3812, "angula": 3813, "languid": 3814, "fungus": 3815, "Bungi": 3816, "angular": 3817, "vangua": 3818, "angulat": 3819, "iangulat": 3820, "vanguar": 3821, "vanguard": 3822, "riangulat": 3823, "triangulat": 3824, "triangulati": 3825, "triangulatio": 3826, "fungi": 3827, "hung": 3828, "triangulation": 3829, "funga": 3830, "Fung": 3831, "fungal": 3832, "Fungi": 3833, "Sung": 3834, "tangular": 3835, "language": 3836, "ctangular": 3837, "lounge": 3838, "ectangular": 3839, "rectangular": 3840, "Lounge": 3841, "triangulate": 3842, "Bungie": 3843, "Sanguine": 3844, "Dang": 3845, "Sanguinet": 3846, "Dange": 3847, "rang": 3848, "Dung": 3849, "icking": 3850, "Kicking": 3851, "kicking": 3852, "picking": 3853, "Sanguineti": 3854, "Danger": 3855, "hang": 3856, "ranging": 3857, "Dhang": 3858, "hanging": 3859, "Dangero": 3860, "licking": 3861, "Dhanga": 3862, "Orang": 3863, "ucking": 3864, "Dangerou": 3865, "clicking": 3866, "fucking": 3867, "ticking": 3868, "Dhangar": 3869, "ocking": 3870, "Sang": 3871, "Orange": 3872, "hocking": 3873, "sucking": 3874, "Dangerous": 3875, "Dangerousl": 3876, "shocking": 3877, "Dangerously": 3878, "sticking": 3879, "locking": 3880, "blocking": 3881, "mocking": 3882, "ecking": 3883, "checking": 3884, "pecking": 3885, "nlocking": 3886, "unlocking": 3887, "nocking": 3888, "Dunge": 3889, "Mang": 3890, "knocking": 3891, "rocking": 3892, "Dungeo": 3893, "Manga": 3894, "gang": 3895, "Grang": 3896, "chgang": 3897, "Dungeon": 3898, "Mangal": 3899, "Grange": 3900, "Granget": 3901, "nchgang": 3902, "Mangalo": 3903, "Mangalor": 3904, "Grangeto": 3905, "anchgang": 3906, "Panchgang": 3907, "Grangetow": 3908, "Grangetown": 3909, "Panchganga": 3910, "Mangalore": 3911, "range": 3912, "tacking": 3913, "ongu": 3914, "iz": 3915, "Xizong": 3916, "Shizong": 3917, "Wrang": 3918, "Qiz": 3919, "Qizh": 3920, "prang": 3921, "uizong": 3922, "Huizong": 3923, "Frang": 3924, "Wrangl": 3925, "ttacking": 3926, "Frangl": 3927, "wrang": 3928, "tongu": 3929, "Qizho": 3930, "Qizhou": 3931, "wrangl": 3932, "attacking": 3933, "wrangling": 3934, "aprang": 3935, "Saprang": 3936, "aizong": 3937, "lacking": 3938, "ozong": 3939, "Liz": 3940, "Taizong": 3941, "nzong": 3942, "aozong": 3943, "racking": 3944, "Gaozong": 3945, "Tracking": 3946, "hacking": 3947, "packing": 3948, "tracking": 3949, "inzong": 3950, "Shiz": 3951, "rangl": 3952, "tongue": 3953, "Qinzong": 3954, "Shizh": 3955, "trangl": 3956, "sacking": 3957, "Frangle": 3958, "Shizhong": 3959, "strangl": 3960, "Franglen": 3961, "Wrangle": 3962, "Wrangler": 3963, "strangle": 3964, "Longue": 3965, "pong": 3966, "upong": 3967, "mpong": 3968, "Longues": 3969, "nupong": 3970, "gong": 3971, "QC": 3972, "Tz": 3973, "Anupong": 3974, "Tzu": 3975, "ugong": 3976, "ongo": 3977, "ziz": 3978, "Aziz": 3979, "ongoing": 3980, "igong": 3981, "Longor": 3982, "dong": 3983, "ougong": 3984, "qigong": 3985, "angdong": 3986, "dougong": 3987, "hong": 3988, "Longori": 3989, "ziza": 3990, "phong": 3991, "uangdong": 3992, "Longoria": 3993, "ndong": 3994, "Guangdong": 3995, "iphong": 3996, "andong": 3997, "nong": 3998, "eziza": 3999, "ompong": 4000, "vang": 4001, "Qing": 4002, "zj": 4003, "Shandong": 4004, "Kompong": 4005, "Peziza": 4006, "thiphong": 4007, "tong": 4008, "uthiphong": 4009, "tongs": 4010, "ozj": 4011, "Vuthiphong": 4012, "Hozj": 4013, "Hozja": 4014, "Hozjan": 4015, "ampong": 4016, "Kampong": 4017, "avang": 4018, "tavang": 4019, "Stavang": 4020, "Stavange": 4021, "Stavanger": 4022, "enong": 4023, "denong": 4024, "evang": 4025, "ndenong": 4026, "evange": 4027, "Engli": 4028, "evangel": 4029, "Englis": 4030, "andenong": 4031, "Dandenong": 4032, "English": 4033, "evangeli": 4034, "Engla": 4035, "evangelic": 4036, "Englan": 4037, "Engle": 4038, "Vi": 4039, "izing": 4040, "Angl": 4041, "ugang": 4042, "Dhangars": 4043, "Mugang": 4044, "Viking": 4045, "Vij": 4046, "England": 4047, "evangelica": 4048, "evangelical": 4049, "Vija": 4050, "Vijay": 4051, "Muganga": 4052, "VI": 4053, "VID": 4054, "VP": 4055, "Vick": 4056, "Vijaya": 4057, "VIDE": 4058, "MVP": 4059, "Vijayan": 4060, "lizing": 4061, "VV": 4062, "Ange": 4063, "Anglo": 4064, "Vic": 4065, "VIDEO": 4066, "VVS": 4067, "Angel": 4068, "Angu": 4069, "Vijayana": 4070, "Vict": 4071, "cizing": 4072, "422n": 4073, "Fighte": 4074, "Whi": 4075, "77th": 4076, "Engler": 4077, "Vijayanag": 4078, "422nd": 4079, "icizing": 4080, "Fighter": 4081, "ticizing": 4082, "Anger": 4083, "Whil": 4084, "Victo": 4085, "Vijayanaga": 4086, "Angus": 4087, "Whe": 4088, "Victi": 4089, "Victim": 4090, "Angui": 4091, "Anguil": 4092, "Victims": 4093, "iticizing": 4094, "TWh": 4095, "Victor": 4096, "Anguill": 4097, "riticizing": 4098, "criticizing": 4099, "Vijayanagar": 4100, "Whit": 4101, "Victori": 4102, "Anguilla": 4103, "When": 4104, "While": 4105, "Why": 4106, "Ango": 4107, "Whig": 4108, "Victory": 4109, "Which": 4110, "Whip": 4111, "Angol": 4112, "Whils": 4113, "Victoria": 4114, "Whilst": 4115, "Whis": 4116, "Angola": 4117, "Whisk": 4118, "Vijayanagara": 4119, "Angr": 4120, "White": 4121, "Angry": 4122, "Whitby": 4123, "Angi": 4124, "Whiske": 4125, "Whiskey": 4126, "Whitw": 4127, "Angie": 4128, "Wha": 4129, "Angli": 4130, "Anglic": 4131, "What": 4132, "Who": 4133, "Whal": 4134, "Whitwo": 4135, "Anglica": 4136, "Anglican": 4137, "Whitwor": 4138, "Anglia": 4139, "Whale": 4140, "Whitworth": 4141, "Anglian": 4142, "Whaler": 4143, "Angle": 4144, "Whol": 4145, "iangular": 4146, "Upo": 4147, "Upon": 4148, "riangular": 4149, "Angles": 4150, "triangular": 4151, "Whalers": 4152, "Whole": 4153, "Anglese": 4154, "expl": 4155, "right": 4156, "Anglesey": 4157, "Wright": 4158, "Bright": 4159, "ighting": 4160, "Sighting": 4161, "might": 4162, "bright": 4163, "night": 4164, "Knight": 4165, "Wight": 4166, "knight": 4167, "sighting": 4168, "nightinga": 4169, "nightingal": 4170, "sightings": 4171, "Knights": 4172, "Brighto": 4173, "nightingale": 4174, "wight": 4175, "Dwight": 4176, "Brighton": 4177, "knights": 4178, "explo": 4179, "conge": 4180, "congl": 4181, "conges": 4182, "expla": 4183, "explor": 4184, "congest": 4185, "exploring": 4186, "expli": 4187, "congen": 4188, "explic": 4189, "congeni": 4190, "congenit": 4191, "explici": 4192, "explicit": 4193, "congesti": 4194, "explicitl": 4195, "explai": 4196, "congestio": 4197, "explicitly": 4198, "explain": 4199, "explaining": 4200, "explan": 4201, "congestion": 4202, "conglo": 4203, "explana": 4204, "conglom": 4205, "explanat": 4206, "congenita": 4207, "explos": 4208, "congenital": 4209, "explosi": 4210, "explosiv": 4211, "explanati": 4212, "explod": 4213, "exploding": 4214, "exploi": 4215, "explosio": 4216, "exploit": 4217, "explosion": 4218, "explanatio": 4219, "explosive": 4220, "explanation": 4221, "explode": 4222, "conglome": 4223, "exploded": 4224, "explosions": 4225, "conglomer": 4226, "explodes": 4227, "conglomera": 4228, "sq": 4229, "Unt": 4230, "Victorian": 4231, "jur": 4232, "Whee": 4233, "Underw": 4234, "Highl": 4235, "Du": 4236, "Might": 4237, "Mighty": 4238, "jury": 4239, "DuM": 4240, "Wheel": 4241, "DuV": 4242, "conglomerat": 4243, "Unti": 4244, "Underwo": 4245, "Until": 4246, "Unto": 4247, "Untol": 4248, "Underwoo": 4249, "Untold": 4250, "Underwood": 4251, "DuMo": 4252, "Esqu": 4253, "Duk": 4254, "njur": 4255, "Highla": 4256, "Ajur": 4257, "injury": 4258, "injur": 4259, "Esqui": 4260, "Highlan": 4261, "Highland": 4262, "Esquis": 4263, "DuMon": 4264, "juri": 4265, "Ajura": 4266, "DuMont": 4267, "Esquiss": 4268, "Ajuran": 4269, "juro": 4270, "juror": 4271, "juris": 4272, "DuVa": 4273, "DuVal": 4274, "jurisd": 4275, "jurors": 4276, "aq": 4277, "Wher": 4278, "DuVall": 4279, "Maq": 4280, "laqu": 4281, "jurist": 4282, "jurisdi": 4283, "Whed": 4284, "Plaqu": 4285, "plaqu": 4286, "jurisdic": 4287, "Wheth": 4288, "jurists": 4289, "raq": 4290, "Whedo": 4291, "aqua": 4292, "jud": 4293, "Iraq": 4294, "judg": 4295, "paq": 4296, "juk": 4297, "jurisdict": 4298, "juku": 4299, "aquat": 4300, "juv": 4301, "jurisdicti": 4302, "Whedon": 4303, "aquati": 4304, "jurisdictio": 4305, "jun": 4306, "ajuku": 4307, "Lju": 4308, "aquatic": 4309, "Ljub": 4310, "jug": 4311, "jub": 4312, "junc": 4313, "Ljubi": 4314, "jurisdiction": 4315, "rajuku": 4316, "juga": 4317, "junct": 4318, "jubi": 4319, "Ljubin": 4320, "jugal": 4321, "juw": 4322, "arajuku": 4323, "Ljubinj": 4324, "Harajuku": 4325, "jubil": 4326, "jugat": 4327, "juncti": 4328, "njugat": 4329, "junctio": 4330, "junction": 4331, "onjugat": 4332, "conjugat": 4333, "juwo": 4334, "juwon": 4335, "ajuwon": 4336, "lajuwon": 4337, "apaq": 4338, "jui": 4339, "Olajuwon": 4340, "wapaq": 4341, "juic": 4342, "dju": 4343, "juni": 4344, "squa": 4345, "djusting": 4346, "junk": 4347, "djut": 4348, "iju": 4349, "junio": 4350, "junior": 4351, "riju": 4352, "djustm": 4353, "junt": 4354, "rjun": 4355, "adjustm": 4356, "Arjun": 4357, "adjust": 4358, "junta": 4359, "ariju": 4360, "mariju": 4361, "marijua": 4362, "marijuan": 4363, "adjut": 4364, "marijuana": 4365, "adjuta": 4366, "adjutan": 4367, "arjun": 4368, "karjun": 4369, "adjutant": 4370, "ikarjun": 4371, "likarjun": 4372, "llikarjun": 4373, "allikarjun": 4374, "Mallikarjun": 4375, "Mallikarjuna": 4376, "Asqu": 4377, "squad": 4378, "Asqui": 4379, "squar": 4380, "usqu": 4381, "Unf": 4382, "adjustme": 4383, "Susqu": 4384, "Asquith": 4385, "adjustmen": 4386, "Unfo": 4387, "squal": 4388, "Unc": 4389, "Uncl": 4390, "adjustment": 4391, "Unfor": 4392, "Uncu": 4393, "Unfort": 4394, "Unfortu": 4395, "Uncut": 4396, "Unfortun": 4397, "squat": 4398, "isqual": 4399, "squall": 4400, "disqual": 4401, "squalls": 4402, "disquali": 4403, "squan": 4404, "Unfortuna": 4405, "Unb": 4406, "disqualif": 4407, "squand": 4408, "Unfortunat": 4409, "adjustments": 4410, "Unbr": 4411, "juve": 4412, "disqualifi": 4413, "juven": 4414, "injure": 4415, "injured": 4416, "juveni": 4417, "injurie": 4418, "juvenil": 4419, "injuries": 4420, "Where": 4421, "juvenile": 4422, "square": 4423, "conjugate": 4424, "conjugated": 4425, "Uncle": 4426, "Unbre": 4427, "Unbrea": 4428, "Duke": 4429, "Unbreak": 4430, "plaque": 4431, "Unbreaka": 4432, "Whethe": 4433, "Unbreakab": 4434, "Whether": 4435, "jubile": 4436, "Unbreakabl": 4437, "jubilee": 4438, "Unbreakable": 4439, "squande": 4440, "squander": 4441, "Unfortunate": 4442, "squandering": 4443, "Unfortunatel": 4444, "juice": 4445, "Unfortunately": 4446, "Unbe": 4447, "Unbek": 4448, "Susque": 4449, "Susqueh": 4450, "Unbekn": 4451, "Unfe": 4452, "Unbekno": 4453, "Susqueha": 4454, "Unbeknow": 4455, "Susquehan": 4456, "Unfea": 4457, "Plaque": 4458, "Unbeknown": 4459, "Unbeknowns": 4460, "Susquehann": 4461, "Unfear": 4462, "conglomerate": 4463, "Unbeknownst": 4464, "Susquehanna": 4465, "Unfeare": 4466, "Unfeared": 4467, "disqualifie": 4468, "disqualified": 4469, "Ljubinje": 4470, "ejuri": 4471, "Jejuri": 4472, "Esquisse": 4473, "Dur": 4474, "njunction": 4475, "juveniles": 4476, "During": 4477, "Dub": 4478, "Esquisses": 4479, "onjunction": 4480, "conjunction": 4481, "Durh": 4482, "Dubl": 4483, "injunction": 4484, "Duch": 4485, "Durg": 4486, "Dubli": 4487, "Duck": 4488, "Durha": 4489, "Duchy": 4490, "Wheele": 4491, "squadr": 4492, "Wheelch": 4493, "Durham": 4494, "Dublin": 4495, "Wheeler": 4496, "squadro": 4497, "Durga": 4498, "Ducks": 4499, "squadron": 4500, "Wheelcha": 4501, "Wheelchai": 4502, "Dura": 4503, "Durb": 4504, "Wheelchair": 4505, "Duran": 4506, "Durand": 4507, "Durr": 4508, "Durba": 4509, "judi": 4510, "judge": 4511, "osqu": 4512, "Mosqu": 4513, "judgm": 4514, "judic": 4515, "Bosqu": 4516, "mosqu": 4517, "Durban": 4518, "judo": 4519, "judici": 4520, "Durra": 4521, "judgme": 4522, "judok": 4523, "judgmen": 4524, "judgment": 4525, "Durran": 4526, "judicia": 4527, "judicial": 4528, "Durrant": 4529, "judoka": 4530, "ejudic": 4531, "judiciar": 4532, "judiciary": 4533, "rejudic": 4534, "prejudic": 4535, "prejudice": 4536, "Bosque": 4537, "prejudices": 4538, "sque": 4539, "D50": 4540, "LD50": 4541, "Mosqui": 4542, "Mosquit": 4543, "mosqui": 4544, "mosquit": 4545, "squi": 4546, "Mosquito": 4547, "esque": 4548, "squir": 4549, "mosquito": 4550, "squee": 4551, "squatt": 4552, "DZ": 4553, "squeez": 4554, "HDZ": 4555, "squirr": 4556, "mosquitoe": 4557, "mosquitoes": 4558, "squeeze": 4559, "squeezed": 4560, "squatte": 4561, "squatter": 4562, "squirre": 4563, "DX": 4564, "MDX": 4565, "squirrel": 4566, "squatters": 4567, "DN": 4568, "adjuste": 4569, "Whitt": 4570, "DNA": 4571, "adjusted": 4572, "squirrels": 4573, "Whitta": 4574, "Whitm": 4575, "Whittak": 4576, "Whitma": 4577, "Whitn": 4578, "Duche": 4579, "Duches": 4580, "Whitman": 4581, "Ducho": 4582, "Whita": 4583, "Whitne": 4584, "Whitak": 4585, "Duchov": 4586, "Whitney": 4587, "Duchess": 4588, "Whittake": 4589, "alizing": 4590, "YM": 4591, "VH": 4592, "changed": 4593, "VH1": 4594, "YMC": 4595, "YMCA": 4596, "VHS": 4597, "VHF": 4598, "Duchovn": 4599, "Whittaker": 4600, "ilizing": 4601, "Whitake": 4602, "changes": 4603, "Duchovny": 4604, "bilizing": 4605, "Whitaker": 4606, "olizing": 4607, "bolizing": 4608, "tilizing": 4609, "abilizing": 4610, "explore": 4611, "\u00e4u": 4612, "utilizing": 4613, "\u00e4um": 4614, "mbolizing": 4615, "tabilizing": 4616, "r\u00e4um": 4617, "explora": 4618, "Tr\u00e4um": 4619, "ymbolizing": 4620, "explorat": 4621, "stabilizing": 4622, "symbolizing": 4623, "explorati": 4624, "Tr\u00e4ume": 4625, "explored": 4626, "Eu": 4627, "joyf": 4628, "ack": 4629, "Jack": 4630, "jack": 4631, "joyfu": 4632, "Zack": 4633, "joyful": 4634, "back": 4635, "Eu2": 4636, "Eu2O": 4637, "Back": 4638, "Tr\u00e4umer": 4639, "Eu2O3": 4640, "Backg": 4641, "Eur": 4642, "exploratio": 4643, "Eug": 4644, "exploration": 4645, "Backgr": 4646, "EuS": 4647, "Euch": 4648, "Backgro": 4649, "Backgrou": 4650, "Euro": 4651, "backg": 4652, "Eucha": 4653, "Eup": 4654, "jackr": 4655, "Euge": 4656, "Euph": 4657, "Europ": 4658, "Backgroun": 4659, "Eurog": 4660, "Background": 4661, "Eugen": 4662, "backgr": 4663, "Euphr": 4664, "Euchar": 4665, "backgro": 4666, "Eura": 4667, "backgrou": 4668, "Euras": 4669, "Euchari": 4670, "Euroga": 4671, "Eurogam": 4672, "Eucharis": 4673, "Eurasi": 4674, "backgroun": 4675, "Euphra": 4676, "background": 4677, "Euphrat": 4678, "Eucharist": 4679, "Eurasia": 4680, "jackra": 4681, "Tr\u00e4umere": 4682, "jackrab": 4683, "Tr\u00e4umerei": 4684, "Eurogame": 4685, "jackrabb": 4686, "Eurogamer": 4687, "Euphrate": 4688, "lack": 4689, "Backy": 4690, "Black": 4691, "black": 4692, "Euphrates": 4693, "jackrabbi": 4694, "Backya": 4695, "Gack": 4696, "Europe": 4697, "Eurasian": 4698, "jackrabbit": 4699, "Backyar": 4700, "Gacko": 4701, "Eub": 4702, "ackD": 4703, "jacke": 4704, "mackD": 4705, "Backyard": 4706, "jacket": 4707, "SmackD": 4708, "SmackDo": 4709, "Euba": 4710, "Euc": 4711, "Eugene": 4712, "rack": 4713, "SmackDow": 4714, "Track": 4715, "Brack": 4716, "Eugeni": 4717, "Euban": 4718, "Eubank": 4719, "SmackDown": 4720, "track": 4721, "Eubanks": 4722, "Crack": 4723, "Brackn": 4724, "Cracks": 4725, "crack": 4726, "Eucl": 4727, "Mack": 4728, "Cracksm": 4729, "Eucli": 4730, "brack": 4731, "tack": 4732, "Eugenia": 4733, "Euclid": 4734, "pack": 4735, "ttack": 4736, "Cracksma": 4737, "tackl": 4738, "Pack": 4739, "Cracksman": 4740, "stack": 4741, "Wack": 4742, "Attack": 4743, "fpack": 4744, "Euca": 4745, "lfpack": 4746, "Eucal": 4747, "olfpack": 4748, "attack": 4749, "rrack": 4750, "Wolfpack": 4751, "Eucaly": 4752, "rracks": 4753, "Eucalyp": 4754, "arracks": 4755, "Barracks": 4756, "barracks": 4757, "Eucalypt": 4758, "arrack": 4759, "Sack": 4760, "barrack": 4761, "Eucalyptu": 4762, "Sacks": 4763, "hack": 4764, "tackling": 4765, "Wacke": 4766, "Wacket": 4767, "Eucalyptus": 4768, "Brackne": 4769, "Bracknel": 4770, "Wackett": 4771, "tackle": 4772, "Bracknell": 4773, "bracke": 4774, "bracket": 4775, "barracke": 4776, "barracked": 4777, "brackets": 4778, "Bracke": 4779, "ackn": 4780, "arack": 4781, "Barack": 4782, "Bracken": 4783, "ackno": 4784, "sack": 4785, "Brackenb": 4786, "acknow": 4787, "Brackenbu": 4788, "acknowl": 4789, "wack": 4790, "ywack": 4791, "mack": 4792, "Brackenbur": 4793, "dywack": 4794, "ddywack": 4795, "dack": 4796, "smack": 4797, "dsmack": 4798, "idack": 4799, "Widack": 4800, "Widacki": 4801, "Brackenburn": 4802, "odsmack": 4803, "addywack": 4804, "acknowle": 4805, "tackles": 4806, "wAttack": 4807, "Godsmack": 4808, "Paddywack": 4809, "acknowled": 4810, "ewAttack": 4811, "jackrabbits": 4812, "ick": 4813, "quick": 4814, "acknowledg": 4815, "Quick": 4816, "Nick": 4817, "acknowledging": 4818, "kick": 4819, "Dick": 4820, "quickl": 4821, "quickly": 4822, "Rick": 4823, "Ricky": 4824, "Chick": 4825, "Kick": 4826, "rewAttack": 4827, "crewAttack": 4828, "chick": 4829, "ock": 4830, "ScrewAttack": 4831, "Rock": 4832, "Lock": 4833, "uck": 4834, "Rocky": 4835, "chicks": 4836, "Chuck": 4837, "Tuck": 4838, "Luck": 4839, "Ick": 4840, "Lucky": 4841, "Buck": 4842, "Puck": 4843, "Buckl": 4844, "Luckn": 4845, "Buckh": 4846, "Luckno": 4847, "Auck": 4848, "Hock": 4849, "Chucky": 4850, "wick": 4851, "Twick": 4852, "Lucknow": 4853, "Auckl": 4854, "Buckho": 4855, "Dock": 4856, "Docky": 4857, "Buckhor": 4858, "Auckla": 4859, "lock": 4860, "Hocke": 4861, "Hockey": 4862, "block": 4863, "Clock": 4864, "Aucklan": 4865, "Auckland": 4866, "Buckhorn": 4867, "Clocks": 4868, "Glock": 4869, "rClock": 4870, "Block": 4871, "Dockya": 4872, "Dockyar": 4873, "Flock": 4874, "Dockyard": 4875, "Flocks": 4876, "clock": 4877, "Shock": 4878, "Twicke": 4879, "Twicken": 4880, "clockw": 4881, "flock": 4882, "Icke": 4883, "Twickenh": 4884, "Ickes": 4885, "clockwi": 4886, "erClock": 4887, "verClock": 4888, "clockwis": 4889, "clockwo": 4890, "Twickenha": 4891, "OverClock": 4892, "Twickenham": 4893, "clockwor": 4894, "clockwise": 4895, "clockwork": 4896, "OverClocke": 4897, "flocks": 4898, "ruck": 4899, "Buckla": 4900, "Truck": 4901, "OverClocked": 4902, "buck": 4903, "ucky": 4904, "truck": 4905, "Bucklan": 4906, "Buckle": 4907, "Buckley": 4908, "Buckland": 4909, "struck": 4910, "tucky": 4911, "lucky": 4912, "ntucky": 4913, "trucks": 4914, "eck": 4915, "Ack": 4916, "check": 4917, "Peck": 4918, "Keck": 4919, "Beck": 4920, "Leck": 4921, "Leckw": 4922, "Neck": 4923, "Check": 4924, "Leckwi": 4925, "Peckh": 4926, "yck": 4927, "Neckl": 4928, "Eyck": 4929, "Leckwith": 4930, "Neckla": 4931, "Necklac": 4932, "Peckha": 4933, "peck": 4934, "rck": 4935, "entucky": 4936, "Kentucky": 4937, "Peckham": 4938, "nck": 4939, "arck": 4940, "pecki": 4941, "Marck": 4942, "marck": 4943, "peckl": 4944, "Peckhams": 4945, "dpeck": 4946, "smarck": 4947, "speckl": 4948, "ismarck": 4949, "odpeck": 4950, "Bismarck": 4951, "oodpeck": 4952, "peckii": 4953, "anck": 4954, "Necklace": 4955, "woodpeck": 4956, "Necklaces": 4957, "lanck": 4958, "Planck": 4959, "ranck": 4960, "speckle": 4961, "Franck": 4962, "speckles": 4963, "woodpecke": 4964, "speckled": 4965, "woodpecker": 4966, "epecki": 4967, "zepecki": 4968, "woodpeckers": 4969, "deck": 4970, "acknowledge": 4971, "hock": 4972, "Rzepecki": 4973, "acknowledgm": 4974, "acknowledged": 4975, "shock": 4976, "neck": 4977, "Meck": 4978, "reck": 4979, "hocke": 4980, "hockey": 4981, "wreck": 4982, "shocked": 4983, "beck": 4984, "heck": 4985, "freck": 4986, "rbeck": 4987, "heckl": 4988, "freckl": 4989, "leck": 4990, "Kleck": 4991, "ueck": 4992, "fleck": 4993, "Klecks": 4994, "rueck": 4995, "recko": 4996, "Mecke": 4997, "Krueck": 4998, "ffleck": 4999, "reckon": 5000, "heckle": 5001, "Affleck": 5002, "reckoning": 5003, "heckled": 5004, "acknowledgme": 5005, "acknowledgmen": 5006, "erbeck": 5007, "lerbeck": 5008, "acknowledgment": 5009, "Kleckse": 5010, "llerbeck": 5011, "Ellerbeck": 5012, "Klecksel": 5013, "freckle": 5014, "freckles": 5015, "Tucke": 5016, "Mick": 5017, "Tucker": 5018, "rick": 5019, "Macki": 5020, "Eg": 5021, "Egy": 5022, "Crick": 5023, "Mackin": 5024, "Wick": 5025, "Egyp": 5026, "Wickf": 5027, "Egu": 5028, "Eguch": 5029, "Egg": 5030, "Egypt": 5031, "Wickfo": 5032, "crick": 5033, "Mackina": 5034, "thick": 5035, "Mackinaw": 5036, "Mackinac": 5037, "brick": 5038, "Eguchi": 5039, "Wickfor": 5040, "pick": 5041, "Wickford": 5042, "Pick": 5043, "Trick": 5044, "Egm": 5045, "Egypti": 5046, "Tricky": 5047, "Egmo": 5048, "Egyptia": 5049, "trick": 5050, "Cricke": 5051, "Cricket": 5052, "Egyptian": 5053, "Egmon": 5054, "Frick": 5055, "Egmont": 5056, "Brick": 5057, "cricke": 5058, "cricket": 5059, "Wicke": 5060, "Wickes": 5061, "Egge": 5062, "Egged": 5063, "Fricke": 5064, "Egi": 5065, "Fick": 5066, "Egit": 5067, "Ego": 5068, "Ficke": 5069, "Tick": 5070, "Strick": 5071, "Strickl": 5072, "Egitt": 5073, "Ficket": 5074, "Egon": 5075, "Egitto": 5076, "Strickla": 5077, "Ticke": 5078, "Ticket": 5079, "Fickett": 5080, "Stricklan": 5081, "Strickland": 5082, "tick": 5083, "Macke": 5084, "Ackr": 5085, "CE": 5086, "Europa": 5087, "CEO": 5088, "ACE": 5089, "Ackro": 5090, "Europi": 5091, "Macken": 5092, "Acke": 5093, "stick": 5094, "joystick": 5095, "Mackenz": 5096, "nightstick": 5097, "Ackroy": 5098, "Europiu": 5099, "Mackenzi": 5100, "Macker": 5101, "Europium": 5102, "Ackroyd": 5103, "Mackerr": 5104, "Acker": 5105, "Europo": 5106, "Stick": 5107, "Mackerra": 5108, "sticky": 5109, "Mackenzie": 5110, "nick": 5111, "Knick": 5112, "Europos": 5113, "Knicks": 5114, "Mackerras": 5115, "Ackers": 5116, "Sticks": 5117, "Ackerso": 5118, "nickn": 5119, "vick": 5120, "vicky": 5121, "Ackerson": 5122, "ovicky": 5123, "nickna": 5124, "lick": 5125, "ticke": 5126, "rock": 5127, "kovicky": 5128, "Throck": 5129, "nicknam": 5130, "ticket": 5131, "click": 5132, "Throckm": 5133, "flick": 5134, "akovicky": 5135, "tickets": 5136, "dick": 5137, "Jock": 5138, "nickname": 5139, "Makovicky": 5140, "ddick": 5141, "Throckmo": 5142, "sick": 5143, "mick": 5144, "Throckmor": 5145, "nicknamed": 5146, "slick": 5147, "oddick": 5148, "Roddick": 5149, "mmick": 5150, "Throckmort": 5151, "licki": 5152, "immick": 5153, "Throckmorto": 5154, "alicki": 5155, "Palicki": 5156, "gimmick": 5157, "Throckmorton": 5158, "iddick": 5159, "rmick": 5160, "ticks": 5161, "Cock": 5162, "Riddick": 5163, "Cockb": 5164, "imick": 5165, "ormick": 5166, "addick": 5167, "Cormick": 5168, "Caddick": 5169, "Cockbu": 5170, "mimick": 5171, "cCormick": 5172, "Cockn": 5173, "McCormick": 5174, "Cockbur": 5175, "mimicke": 5176, "mimicked": 5177, "Cockburn": 5178, "Cockne": 5179, "otick": 5180, "Bock": 5181, "Kotick": 5182, "Cockney": 5183, "Bocks": 5184, "chicke": 5185, "atrick": 5186, "Patrick": 5187, "chicken": 5188, "patrick": 5189, "chickens": 5190, "zpatrick": 5191, "kpatrick": 5192, "tzpatrick": 5193, "acknowledges": 5194, "sickl": 5195, "sickly": 5196, "itzpatrick": 5197, "rkpatrick": 5198, "acknowledgem": 5199, "Jacks": 5200, "Juliu": 5201, "Ganga": 5202, "Fitzpatrick": 5203, "Julius": 5204, "irkpatrick": 5205, "Jackso": 5206, "Gangan": 5207, "sickle": 5208, "Kirkpatrick": 5209, "Juliusz": 5210, "Jackson": 5211, "Gangane": 5212, "Ganganel": 5213, "acknowledgeme": 5214, "Ganganell": 5215, "acknowledgemen": 5216, "Gange": 5217, "Gangad": 5218, "1860s": 5219, "explorer": 5220, "Gangadh": 5221, "acknowledgement": 5222, "Ganges": 5223, "Ganganelli": 5224, "Gangadha": 5225, "explorers": 5226, "\u00f1ol": 5227, "WW": 5228, "WWE": 5229, "WWF": 5230, "Gangadhar": 5231, "a\u00f1ol": 5232, "i\u00f1o": 5233, "1250s": 5234, "Ni\u00f1o": 5235, "ta\u00f1ol": 5236, "Gangadhara": 5237, "\u00f1or": 5238, "sta\u00f1ol": 5239, "\u00f1ora": 5240, "Esta\u00f1ol": 5241, "e\u00f1ora": 5242, "Se\u00f1ora": 5243, "e\u00f1o": 5244, "Docks": 5245, "me\u00f1o": 5246, "erick": 5247, "Ukraini": 5248, "resque": 5249, "NE": 5250, "NEA": 5251, "NET": 5252, "CNET": 5253, "NES": 5254, "ANES": 5255, "derick": 5256, "uresque": 5257, "sme\u00f1o": 5258, "Ukrainia": 5259, "nesque": 5260, "rrick": 5261, "Ukraine": 5262, "BANES": 5263, "verick": 5264, "merick": 5265, "turesque": 5266, "isme\u00f1o": 5267, "Ukrainian": 5268, "Ukraina": 5269, "cturesque": 5270, "imerick": 5271, "risme\u00f1o": 5272, "anesque": 5273, "Limerick": 5274, "manesque": 5275, "icturesque": 5276, "arisme\u00f1o": 5277, "Marisme\u00f1o": 5278, "picturesque": 5279, "omanesque": 5280, "averick": 5281, "drick": 5282, "Romanesque": 5283, "Maverick": 5284, "prick": 5285, "ndrick": 5286, "prickl": 5287, "ricks": 5288, "ederick": 5289, "ricksh": 5290, "edericksb": 5291, "prickly": 5292, "rederick": 5293, "Frederick": 5294, "Fredericksbu": 5295, "ricksha": 5296, "eresque": 5297, "rickshaw": 5298, "ueresque": 5299, "Fredericksbur": 5300, "endrick": 5301, "tesque": 5302, "arrick": 5303, "Varrick": 5304, "Kendrick": 5305, "gueresque": 5306, "Fredericksburg": 5307, "rickshaws": 5308, "igueresque": 5309, "otesque": 5310, "errick": 5311, "Derrick": 5312, "rotesque": 5313, "grotesque": 5314, "rigueresque": 5315, "Change": 5316, "gangs": 5317, "rangem": 5318, "E3": 5319, "yang": 5320, "angyang": 5321, "rrangem": 5322, "iangyang": 5323, "rrigueresque": 5324, "Arrangem": 5325, "gangst": 5326, "Xiangyang": 5327, "urrigueresque": 5328, "arrangem": 5329, "ryang": 5330, "Changed": 5331, "Churrigueresque": 5332, "churrigueresque": 5333, "aryang": 5334, "Changes": 5335, "arrangeme": 5336, "Maryang": 5337, "arrangemen": 5338, "gangste": 5339, "arrangement": 5340, "gangster": 5341, "Arrangeme": 5342, "oyang": 5343, "dang": 5344, "uoyang": 5345, "Arrangemen": 5346, "Luoyang": 5347, "Arrangement": 5348, "oyangs": 5349, "aoyangs": 5350, "Chaoyangs": 5351, "Chaoyangsa": 5352, "dange": 5353, "angx": 5354, "Chaoyangsau": 5355, "uangx": 5356, "dangl": 5357, "Guangx": 5358, "dangling": 5359, "Guangxi": 5360, "danger": 5361, "Chaoyangsaur": 5362, "angl": 5363, "ealizing": 5364, "Europea": 5365, "Realizing": 5366, "Chaoyangsauru": 5367, "ializing": 5368, "European": 5369, "Bangla": 5370, "cializing": 5371, "Banglad": 5372, "Chaoyangsaurus": 5373, "realizing": 5374, "Langle": 5375, "Langley": 5376, "ecializing": 5377, "pecializing": 5378, "Banglade": 5379, "specializing": 5380, "Banglades": 5381, "Kangle": 5382, "mang": 5383, "Bangladesh": 5384, "Kangley": 5385, "manga": 5386, "Cang": 5387, "mangr": 5388, "kang": 5389, "angle": 5390, "angling": 5391, "imang": 5392, "nkang": 5393, "mangro": 5394, "Simang": 5395, "mangrov": 5396, "angli": 5397, "anglic": 5398, "Simango": 5399, "ankang": 5400, "mangrove": 5401, "Fang": 5402, "anglicu": 5403, "iankang": 5404, "Hang": 5405, "Congregationa": 5406, "l\u00e9": 5407, "84th": 5408, "jokes": 5409, "Jiankang": 5410, "Congregational": 5411, "anglicus": 5412, "tl\u00e9": 5413, "Atl\u00e9": 5414, "l\u00e9v": 5415, "l\u00e9vy": 5416, "l\u00e9m": 5417, "Atl\u00e9t": 5418, "Atl\u00e9ti": 5419, "ol\u00e9": 5420, "pol\u00e9": 5421, "Atl\u00e9tic": 5422, "Atl\u00e9tico": 5423, "pol\u00e9o": 5424, "al\u00e9vy": 5425, "Hal\u00e9vy": 5426, "pol\u00e9on": 5427, "apol\u00e9on": 5428, "el\u00e9m": 5429, "Congregationali": 5430, "joked": 5431, "NH": 5432, "ghu": 5433, "Napol\u00e9on": 5434, "Bel\u00e9m": 5435, "NHL": 5436, "ghuv": 5437, "NHC": 5438, "MNH": 5439, "BMNH": 5440, "NHA": 5441, "NHS": 5442, "AMNH": 5443, "Congregationalis": 5444, "aghuv": 5445, "Raghuv": 5446, "Congregationalist": 5447, "Congregationalists": 5448, "Raghuve": 5449, "oghu": 5450, "noghu": 5451, "eghu": 5452, "beghu": 5453, "onoghu": 5454, "Donoghu": 5455, "mbeghu": 5456, "ambeghu": 5457, "Donoghue": 5458, "Sambeghu": 5459, "Raghuvee": 5460, "Raghuveer": 5461, "the": 5462, "jackets": 5463, "Ult": 5464, "who": 5465, "68th": 5466, "280th": 5467, "48th": 5468, "16th": 5469, "11th": 5470, "12th": 5471, "9th": 5472, "13th": 5473, "125th": 5474, "87th": 5475, "750th": 5476, "strengthen": 5477, "strengthening": 5478, "lengthen": 5479, "65th": 5480, "54th": 5481, "Ulti": 5482, "Ultim": 5483, "Ultr": 5484, "67th": 5485, "Youth": 5486, "78th": 5487, "8th": 5488, "36th": 5489, "7th": 5490, "Ultima": 5491, "Ultimat": 5492, "Ultra": 5493, "15th": 5494, "Ultrat": 5495, "44th": 5496, "Ultrati": 5497, "14th": 5498, "Ultratip": 5499, "90th": 5500, "10th": 5501, "5th": 5502, "56th": 5503, "4th": 5504, "76th": 5505, "6th": 5506, "Ultimate": 5507, "Ultimatel": 5508, "lengthene": 5509, "Ultimately": 5510, "lengthened": 5511, "whe": 5512, "Uls": 5513, "Ulst": 5514, "wha": 5515, "when": 5516, "ize": 5517, "why": 5518, "Wiz": 5519, "what": 5520, "ized": 5521, "wher": 5522, "Ulste": 5523, "whethe": 5524, "Ulster": 5525, "whal": 5526, "Wiza": 5527, "where": 5528, "whaling": 5529, "whether": 5530, "Wizar": 5531, "whel": 5532, "whelm": 5533, "Wizard": 5534, "whelming": 5535, "Wizards": 5536, "rwhelm": 5537, "whar": 5538, "wharv": 5539, "wham": 5540, "erwhelm": 5541, "verwhelm": 5542, "whamm": 5543, "overwhelm": 5544, "whammy": 5545, "owhar": 5546, "wharve": 5547, "Jowhar": 5548, "wharves": 5549, "whale": 5550, "iza": 5551, "whaleb": 5552, "Piz": 5553, "quiz": 5554, "Pizh": 5555, "whalebo": 5556, "Pizhi": 5557, "whalebon": 5558, "Giz": 5559, "izat": 5560, "izab": 5561, "Gizm": 5562, "Niza": 5563, "Nizam": 5564, "hiza": 5565, "lizab": 5566, "izati": 5567, "Gizmo": 5568, "Elizab": 5569, "izabl": 5570, "Gizmod": 5571, "biza": 5572, "liza": 5573, "Eliza": 5574, "wiza": 5575, "hizal": 5576, "rhiza": 5577, "rrhiza": 5578, "bizar": 5579, "bizarr": 5580, "lizar": 5581, "lizard": 5582, "wizar": 5583, "nizati": 5584, "wizard": 5585, "nizatio": 5586, "nization": 5587, "lizatio": 5588, "lization": 5589, "orrhiza": 5590, "corrhiza": 5591, "ycorrhiza": 5592, "mycorrhiza": 5593, "omycorrhiza": 5594, "tomycorrhiza": 5595, "ctomycorrhiza": 5596, "izatio": 5597, "ization": 5598, "Gizmodo": 5599, "rization": 5600, "anization": 5601, "ganization": 5602, "mization": 5603, "onization": 5604, "riz": 5605, "Prize": 5606, "chanization": 5607, "Ariz": 5608, "viz": 5609, "prize": 5610, "manization": 5611, "lonization": 5612, "vizi": 5613, "rganization": 5614, "Organization": 5615, "ionization": 5616, "rmanization": 5617, "rnization": 5618, "rizo": 5619, "rizon": 5620, "organization": 5621, "olonization": 5622, "Colonization": 5623, "colonization": 5624, "orizon": 5625, "Arizona": 5626, "Horizon": 5627, "horizon": 5628, "horizont": 5629, "amization": 5630, "izh": 5631, "ectomycorrhiza": 5632, "namization": 5633, "izho": 5634, "horizonta": 5635, "izhou": 5636, "horizontal": 5637, "tnamization": 5638, "aizhou": 5639, "biz": 5640, "ectomycorrhizae": 5641, "Caizhou": 5642, "wbiz": 5643, "izu": 5644, "izur": 5645, "uiz": 5646, "owbiz": 5647, "Luiz": 5648, "Ruiz": 5649, "howbiz": 5650, "hiz": 5651, "showbiz": 5652, "eizur": 5653, "seizur": 5654, "rhiz": 5655, "thizer": 5656, "rhizo": 5657, "rhizom": 5658, "thizers": 5659, "rhizomo": 5660, "athizers": 5661, "seizure": 5662, "pathizers": 5663, "rhizomor": 5664, "Elizabe": 5665, "Elizabeth": 5666, "rhizomorp": 5667, "mpathizers": 5668, "ermanization": 5669, "Germanization": 5670, "rhizomorph": 5671, "ympathizers": 5672, "echanization": 5673, "mechanization": 5674, "rhizomorphs": 5675, "sympathizers": 5676, "bizarre": 5677, "izable": 5678, "erizon": 5679, "Verizon": 5680, "ernization": 5681, "dernization": 5682, "whalebone": 5683, "odernization": 5684, "vizie": 5685, "modernization": 5686, "vizier": 5687, "etnamization": 5688, "tiz": 5689, "sizable": 5690, "ilization": 5691, "Vietnamization": 5692, "vilization": 5693, "ptized": 5694, "itize": 5695, "Citize": 5696, "bilization": 5697, "citize": 5698, "tilization": 5699, "ivilization": 5700, "Civilization": 5701, "civilization": 5702, "citizen": 5703, "Citizen": 5704, "nizable": 5705, "gnizable": 5706, "niz": 5707, "rtilization": 5708, "bniz": 5709, "gnize": 5710, "gnizing": 5711, "ibniz": 5712, "rtiz": 5713, "ognize": 5714, "Ortiz": 5715, "cognize": 5716, "ognizing": 5717, "cognizing": 5718, "ognizable": 5719, "citizens": 5720, "cognizable": 5721, "Citizens": 5722, "abilization": 5723, "tabilization": 5724, "aptized": 5725, "Stabilization": 5726, "baptized": 5727, "anized": 5728, "ganized": 5729, "stabilization": 5730, "chanized": 5731, "vanized": 5732, "rganized": 5733, "alization": 5734, "lized": 5735, "lvanized": 5736, "calization": 5737, "cized": 5738, "organized": 5739, "icized": 5740, "ocalization": 5741, "alvanized": 5742, "galvanized": 5743, "vocalization": 5744, "localization": 5745, "ticized": 5746, "acized": 5747, "licized": 5748, "iticized": 5749, "racized": 5750, "anize": 5751, "citizensh": 5752, "sized": 5753, "ecognize": 5754, "ganize": 5755, "blicized": 5756, "tracized": 5757, "citizenshi": 5758, "riticized": 5759, "citizenship": 5760, "ublicized": 5761, "criticized": 5762, "stracized": 5763, "recognize": 5764, "publicized": 5765, "rganize": 5766, "rnize": 5767, "organize": 5768, "ostracized": 5769, "thesized": 5770, "gized": 5771, "etized": 5772, "retized": 5773, "ogized": 5774, "nthesized": 5775, "mized": 5776, "ernized": 5777, "ynthesized": 5778, "cretized": 5779, "ymized": 5780, "logized": 5781, "dernized": 5782, "synthesized": 5783, "ncretized": 5784, "othesized": 5785, "echanized": 5786, "yncretized": 5787, "pothesized": 5788, "mechanized": 5789, "nymized": 5790, "omized": 5791, "ypothesized": 5792, "syncretized": 5793, "onymized": 5794, "hypothesized": 5795, "nonymized": 5796, "odernized": 5797, "ynonymized": 5798, "modernized": 5799, "ologized": 5800, "tomized": 5801, "ecognizing": 5802, "pologized": 5803, "domized": 5804, "stomized": 5805, "ustomized": 5806, "synonymized": 5807, "ndomized": 5808, "recognizing": 5809, "apologized": 5810, "ertilization": 5811, "fertilization": 5812, "customized": 5813, "andomized": 5814, "elization": 5815, "velization": 5816, "randomized": 5817, "ernize": 5818, "dernize": 5819, "ovelization": 5820, "ecognizable": 5821, "novelization": 5822, "recognizable": 5823, "odernize": 5824, "eibniz": 5825, "size": 5826, "alized": 5827, "Leibniz": 5828, "modernize": 5829, "lize": 5830, "ilized": 5831, "onizing": 5832, "eized": 5833, "talization": 5834, "bilized": 5835, "ylized": 5836, "dized": 5837, "Size": 5838, "seized": 5839, "ionizing": 5840, "tilized": 5841, "utilized": 5842, "tylized": 5843, "gize": 5844, "rdized": 5845, "olized": 5846, "anizing": 5847, "italization": 5848, "ganizing": 5849, "pitalization": 5850, "bolized": 5851, "stylized": 5852, "ntalization": 5853, "rtilized": 5854, "ogize": 5855, "ardized": 5856, "cize": 5857, "mbolized": 5858, "logize": 5859, "dolized": 5860, "ymbolized": 5861, "dardized": 5862, "spitalization": 5863, "idolized": 5864, "symbolized": 5865, "icize": 5866, "ndardized": 5867, "rganizing": 5868, "ospitalization": 5869, "hospitalization": 5870, "ologize": 5871, "pologize": 5872, "organizing": 5873, "ticize": 5874, "andardized": 5875, "ertilized": 5876, "fertilized": 5877, "licize": 5878, "tandardized": 5879, "iticize": 5880, "blicize": 5881, "standardized": 5882, "riticize": 5883, "ublicize": 5884, "criticize": 5885, "publicize": 5886, "criticizes": 5887, "apologize": 5888, "entalization": 5889, "mize": 5890, "mentalization": 5891, "imize": 5892, "overwhelme": 5893, "lizards": 5894, "overwhelmed": 5895, "tmentalization": 5896, "nimize": 5897, "vocalizations": 5898, "timize": 5899, "inimize": 5900, "rtmentalization": 5901, "viziers": 5902, "minimize": 5903, "itimize": 5904, "artmentalization": 5905, "Horizons": 5906, "organizer": 5907, "eize": 5908, "orizing": 5909, "Weize": 5910, "thorizing": 5911, "gitimize": 5912, "partmentalization": 5913, "dize": 5914, "uthorizing": 5915, "mpartmentalization": 5916, "seize": 5917, "Weizen": 5918, "idize": 5919, "xidize": 5920, "Weizenb": 5921, "rdize": 5922, "ompartmentalization": 5923, "authorizing": 5924, "organizers": 5925, "egitimize": 5926, "compartmentalization": 5927, "legitimize": 5928, "xidizes": 5929, "sidize": 5930, "oxidizes": 5931, "ardize": 5932, "bsidize": 5933, "pardize": 5934, "Weizenba": 5935, "orization": 5936, "thorization": 5937, "ubsidize": 5938, "gorization": 5939, "uthorization": 5940, "Weizenbau": 5941, "subsidize": 5942, "opardize": 5943, "authorization": 5944, "egorization": 5945, "Weizenbaum": 5946, "tegorization": 5947, "eopardize": 5948, "obilized": 5949, "jeopardize": 5950, "mobilized": 5951, "abilized": 5952, "tabilized": 5953, "ategorization": 5954, "onized": 5955, "categorization": 5956, "stabilized": 5957, "ionized": 5958, "enized": 5959, "alize": 5960, "qualize": 5961, "lenized": 5962, "tionized": 5963, "ilize": 5964, "hacke": 5965, "quilize": 5966, "utionized": 5967, "bilize": 5968, "lutionized": 5969, "llenized": 5970, "tilize": 5971, "nquilize": 5972, "utilize": 5973, "nquilizer": 5974, "rtilize": 5975, "rtilizer": 5976, "rtilizers": 5977, "hacker": 5978, "olutionized": 5979, "abilize": 5980, "volutionized": 5981, "tabilize": 5982, "anquilizer": 5983, "equalize": 5984, "stabilize": 5985, "ranquilizer": 5986, "evolutionized": 5987, "tranquilizer": 5988, "revolutionized": 5989, "ertilizers": 5990, "fertilizers": 5991, "ellenized": 5992, "olize": 5993, "utilizes": 5994, "Hellenized": 5995, "bolize": 5996, "elize": 5997, "alizes": 5998, "Belize": 5999, "mbolize": 6000, "ealizes": 6001, "ymbolize": 6002, "ializes": 6003, "realizes": 6004, "whee": 6005, "cializes": 6006, "wheel": 6007, "symbolize": 6008, "whea": 6009, "Mart\u00edne": 6010, "Mart\u00ednez": 6011, "wheelch": 6012, "wheat": 6013, "ecializes": 6014, "pecializes": 6015, "wheatg": 6016, "wheelcha": 6017, "Vicke": 6018, "specializes": 6019, "wheelchai": 6020, "Vicki": 6021, "Vicker": 6022, "Vickers": 6023, "wheelchair": 6024, "wheatgr": 6025, "Vice": 6026, "wheatgra": 6027, "Langue": 6028, "apologizes": 6029, "300th": 6030, "Langued": 6031, "wheatgras": 6032, "Langua": 6033, "Becke": 6034, "Languag": 6035, "wheatgrass": 6036, "Becker": 6037, "Languedo": 6038, "Languedoc": 6039, "Language": 6040, "organizations": 6041, "50th": 6042, "erizing": 6043, "terizing": 6044, "arizing": 6045, "Que": 6046, "cterizing": 6047, "larizing": 6048, "Qui": 6049, "Quee": 6050, "ularizing": 6051, "Queb": 6052, "Queen": 6053, "pularizing": 6054, "Quin": 6055, "acterizing": 6056, "Quebe": 6057, "Quebec": 6058, "racterizing": 6059, "opularizing": 6060, "Quit": 6061, "Qua": 6062, "Ques": 6063, "Quinn": 6064, "weighe": 6065, "popularizing": 6066, "Quak": 6067, "weighed": 6068, "Quest": 6069, "aracterizing": 6070, "Quie": 6071, "characterizing": 6072, "Quiet": 6073, "Quake": 6074, "Quar": 6075, "Quietu": 6076, "Quart": 6077, "Quah": 6078, "Quaker": 6079, "Quietus": 6080, "Quaho": 6081, "Qual": 6082, "Quahog": 6083, "Quali": 6084, "Quakers": 6085, "Quarte": 6086, "Quan": 6087, "Qualif": 6088, "Quas": 6089, "Quarter": 6090, "Quite": 6091, "Quarterback": 6092, "Qualify": 6093, "Quartet": 6094, "Qualifying": 6095, "Qualit": 6096, "Quasi": 6097, "Quito": 6098, "Quine": 6099, "weighs": 6100, "Quf": 6101, "Quality": 6102, "Quiney": 6103, "Qufu": 6104, "Quinc": 6105, "Quint": 6106, "Quince": 6107, "Quo": 6108, "Qur": 6109, "Quinta": 6110, "Quon": 6111, "Quot": 6112, "Quons": 6113, "Quarterl": 6114, "strengthene": 6115, "Quoting": 6116, "Quarterly": 6117, "strengthened": 6118, "Quonse": 6119, "Quonset": 6120, "ve": 6121, "ving": 6122, "\u00e9v": 6123, "venge": 6124, "r\u00e9v": 6125, "Pr\u00e9v": 6126, "Pr\u00e9va": 6127, "Jacksonv": 6128, "Pr\u00e9val": 6129, "Jacksonvi": 6130, "Jacksonvil": 6131, "vi": 6132, "Ever": 6133, "Eva": 6134, "e\u00f3n": 6135, "enging": 6136, "Le\u00f3n": 6137, "Everg": 6138, "lenging": 6139, "Every": 6140, "llenging": 6141, "Everywhere": 6142, "Everyth": 6143, "Jacksonvill": 6144, "Everything": 6145, "Evergl": 6146, "viving": 6147, "Evo": 6148, "Evit": 6149, "Even": 6150, "allenging": 6151, "Jacksonville": 6152, "challenging": 6153, "Evol": 6154, "Evening": 6155, "Evolu": 6156, "Evil": 6157, "rviving": 6158, "Evita": 6159, "urviving": 6160, "Evid": 6161, "Evolut": 6162, "Evergla": 6163, "eviving": 6164, "viv": 6165, "Everglad": 6166, "Surviving": 6167, "Aviv": 6168, "vivip": 6169, "vivid": 6170, "Evoluti": 6171, "surviving": 6172, "reviving": 6173, "vived": 6174, "Evolutio": 6175, "Evolution": 6176, "rvive": 6177, "vivipa": 6178, "Lviv": 6179, "urvive": 6180, "survive": 6181, "vivipar": 6182, "viviparo": 6183, "rviv": 6184, "evived": 6185, "viviparou": 6186, "urviv": 6187, "viviparous": 6188, "revived": 6189, "viva": 6190, "evive": 6191, "Surviv": 6192, "vival": 6193, "surviv": 6194, "revive": 6195, "survivo": 6196, "survivor": 6197, "Survivo": 6198, "Survivor": 6199, "vivo": 6200, "survivors": 6201, "evival": 6202, "Revival": 6203, "vivol": 6204, "vivolv": 6205, "revival": 6206, "avivolv": 6207, "lavivolv": 6208, "flavivolv": 6209, "flavivolva": 6210, "Evide": 6211, "flavivolvat": 6212, "Eviden": 6213, "Everglade": 6214, "Evidenc": 6215, "Everglades": 6216, "flavivolvata": 6217, "t\u00f3n": 6218, "t\u00f3ni": 6219, "i\u00f3n": 6220, "nt\u00f3ni": 6221, "Ant\u00f3ni": 6222, "si\u00f3n": 6223, "visi\u00f3n": 6224, "Ant\u00f3nio": 6225, "Evidence": 6226, "Evert": 6227, "ivisi\u00f3n": 6228, "Everto": 6229, "Event": 6230, "va": 6231, "Everyb": 6232, "erize": 6233, "Divisi\u00f3n": 6234, "Eventu": 6235, "terized": 6236, "cterized": 6237, "terize": 6238, "Everton": 6239, "orize": 6240, "thorize": 6241, "gorized": 6242, "uthorized": 6243, "theorized": 6244, "uthorize": 6245, "uterized": 6246, "cterize": 6247, "Everybo": 6248, "Events": 6249, "authorized": 6250, "puterized": 6251, "Everybod": 6252, "authorize": 6253, "Everybody": 6254, "mputerized": 6255, "acterized": 6256, "racterized": 6257, "omputerized": 6258, "Eventua": 6259, "computerized": 6260, "Eventual": 6261, "aracterized": 6262, "characterized": 6263, "Eventuall": 6264, "acterize": 6265, "Eventually": 6266, "racterize": 6267, "arized": 6268, "vo": 6269, "urized": 6270, "vy": 6271, "marized": 6272, "vE": 6273, "mmarized": 6274, "Kvy": 6275, "larized": 6276, "ummarized": 6277, "ularized": 6278, "Av": 6279, "iarized": 6280, "surized": 6281, "giarized": 6282, "pularized": 6283, "ssurized": 6284, "summarized": 6285, "Avon": 6286, "opularized": 6287, "popularized": 6288, "ovE": 6289, "lovE": 6290, "olarized": 6291, "Avt": 6292, "Aven": 6293, "polarized": 6294, "Avenu": 6295, "ulovE": 6296, "Aver": 6297, "Avto": 6298, "Aval": 6299, "Avtova": 6300, "Avery": 6301, "tulovE": 6302, "Avl": 6303, "aracterize": 6304, "characterize": 6305, "Avtovac": 6306, "itulovE": 6307, "Avr": 6308, "Avlo": 6309, "Avera": 6310, "Averag": 6311, "Avro": 6312, "oitulovE": 6313, "agiarized": 6314, "lagiarized": 6315, "noitulovE": 6316, "Kvya": 6317, "Avig": 6318, "voking": 6319, "plagiarized": 6320, "Kvyat": 6321, "Avign": 6322, "avy": 6323, "Avenue": 6324, "Navy": 6325, "vying": 6326, "Avigno": 6327, "Average": 6328, "Avignon": 6329, "Kavy": 6330, "essurized": 6331, "ressurized": 6332, "Kavya": 6333, "egorized": 6334, "pressurized": 6335, "tegorized": 6336, "Avloe": 6337, "ovoking": 6338, "Avloed": 6339, "nvoking": 6340, "rovoking": 6341, "ategorized": 6342, "Avalo": 6343, "provoking": 6344, "categorized": 6345, "invoking": 6346, "Avalon": 6347, "Avala": 6348, "Avalan": 6349, "Avia": 6350, "eavy": 6351, "Yvo": 6352, "Avalanch": 6353, "heavy": 6354, "Heavy": 6355, "Aviat": 6356, "Yvon": 6357, "Aviati": 6358, "Yvonn": 6359, "Aviatio": 6360, "navy": 6361, "Avalanche": 6362, "wavy": 6363, "Aviation": 6364, "Yvonne": 6365, "ravy": 6366, "dravy": 6367, "dravya": 6368, "zvo": 6369, "zvou": 6370, "zvous": 6371, "ezvous": 6372, "vol": 6373, "Avis": 6374, "ivy": 6375, "Sv": 6376, "volving": 6377, "volve": 6378, "dezvous": 6379, "volu": 6380, "Svay": 6381, "ndezvous": 6382, "volved": 6383, "rivy": 6384, "Privy": 6385, "volva": 6386, "volvem": 6387, "privy": 6388, "Involvem": 6389, "nvolvem": 6390, "volum": 6391, "involvem": 6392, "nvolved": 6393, "involved": 6394, "nvolving": 6395, "volut": 6396, "voluti": 6397, "involving": 6398, "volun": 6399, "volutio": 6400, "volunt": 6401, "volution": 6402, "nvolve": 6403, "involve": 6404, "Svan": 6405, "evolution": 6406, "Revolution": 6407, "Sval": 6408, "volume": 6409, "Svalb": 6410, "evolved": 6411, "Svalba": 6412, "endezvous": 6413, "rendezvous": 6414, "Svalbar": 6415, "evolve": 6416, "Revolve": 6417, "Svalbard": 6418, "involveme": 6419, "involvemen": 6420, "Revolver": 6421, "evolving": 6422, "involvement": 6423, "Involveme": 6424, "revolution": 6425, "volc": 6426, "Sves": 6427, "Svesh": 6428, "Involvemen": 6429, "volca": 6430, "Involvement": 6431, "volcan": 6432, "Sveshn": 6433, "Svea": 6434, "revolve": 6435, "volunte": 6436, "involves": 6437, "volcano": 6438, "Sveab": 6439, "Sveshni": 6440, "Sveshnik": 6441, "volcani": 6442, "Sveabo": 6443, "volunta": 6444, "voluntee": 6445, "evolves": 6446, "revolving": 6447, "volcanic": 6448, "volunteer": 6449, "voluntar": 6450, "voluntary": 6451, "Sveabor": 6452, "Sveshniko": 6453, "Sveshnikov": 6454, "Sveaborg": 6455, "voluntari": 6456, "revolver": 6457, "vok": 6458, "volunteers": 6459, "voluntaril": 6460, "voke": 6461, "voluntarily": 6462, "voked": 6463, "ovoke": 6464, "voc": 6465, "rovoke": 6466, "provoke": 6467, "voca": 6468, "evoke": 6469, "Ivo": 6470, "nvoked": 6471, "v.": 6472, "volt": 6473, "vocal": 6474, "invoked": 6475, "Ivor": 6476, "dvoca": 6477, "dvocat": 6478, "Ivory": 6479, "dvocac": 6480, "dvocating": 6481, "vocat": 6482, "vocab": 6483, "dvocacy": 6484, "vocati": 6485, "advocating": 6486, "vocative": 6487, "vocabu": 6488, "advocat": 6489, "vocabul": 6490, "vocatio": 6491, "advocacy": 6492, "advocate": 6493, "vocation": 6494, "vocabula": 6495, "advocated": 6496, "voll": 6497, "vocals": 6498, "ovocative": 6499, "vu": 6500, "evy": 6501, "Levy": 6502, "vul": 6503, "rovocative": 6504, "provocative": 6505, "vulg": 6506, "levy": 6507, "vocabular": 6508, "vocabulary": 6509, "vuln": 6510, "vulga": 6511, "evocative": 6512, "vulgar": 6513, "vulne": 6514, "vulner": 6515, "evu": 6516, "Revu": 6517, "vulnera": 6518, "vulnerab": 6519, "levu": 6520, "Revue": 6521, "llevu": 6522, "vulnerabl": 6523, "revu": 6524, "vulnerabi": 6525, "vulnerable": 6526, "vulnerabil": 6527, "revue": 6528, "vulnerabili": 6529, "ellevu": 6530, "Bellevu": 6531, "vulnerabilit": 6532, "vulnerability": 6533, "Bellevue": 6534, "vocationa": 6535, "vocational": 6536, "evocation": 6537, "volle": 6538, "nvy": 6539, "volley": 6540, "svoll": 6541, "vyn": 6542, "volleyb": 6543, "rvyn": 6544, "rsvoll": 6545, "volleyba": 6546, "envy": 6547, "volleybal": 6548, "orsvoll": 6549, "ervyn": 6550, "vulgari": 6551, "vk": 6552, "evokes": 6553, "revolutiona": 6554, "Korsvoll": 6555, "Mervyn": 6556, "volleyball": 6557, "vulgaris": 6558, "revolutionar": 6559, "avk": 6560, "Kavk": 6561, "revolutionary": 6562, "revolutionari": 6563, "Kavka": 6564, "je": 6565, "Kavkaz": 6566, "jevo": 6567, "jec": 6568, "ajevo": 6569, "revolutionarie": 6570, "ject": 6571, "revolutionaries": 6572, "rajevo": 6573, "jew": 6574, "arajevo": 6575, "jewe": 6576, "oject": 6577, "vaj": 6578, "Sarajevo": 6579, "jewel": 6580, "Inject": 6581, "ivaj": 6582, "Sivaj": 6583, "Sivaji": 6584, "roject": 6585, "jewell": 6586, "Injecte": 6587, "Project": 6588, "project": 6589, "Injected": 6590, "jewelle": 6591, "jeweller": 6592, "eject": 6593, "jewellery": 6594, "jewelled": 6595, "reject": 6596, "jectu": 6597, "njectu": 6598, "njectur": 6599, "onjectur": 6600, "dject": 6601, "conjectur": 6602, "djecti": 6603, "djective": 6604, "adjective": 6605, "conjecture": 6606, "conjectured": 6607, "ejecte": 6608, "jecto": 6609, "jewelr": 6610, "jewelry": 6611, "rejected": 6612, "ejected": 6613, "rejecting": 6614, "jecti": 6615, "njecti": 6616, "objector": 6617, "injecti": 6618, "jector": 6619, "rejectio": 6620, "jectory": 6621, "rejection": 6622, "injectio": 6623, "injection": 6624, "ajectory": 6625, "objectors": 6626, "rajectory": 6627, "jewels": 6628, "projectil": 6629, "trajectory": 6630, "projectio": 6631, "projectile": 6632, "rejects": 6633, "ja": 6634, "Ej": 6635, "Ejl": 6636, "jing": 6637, "projectiles": 6638, "projection": 6639, "uj": 6640, "Guja": 6641, "ujach": 6642, "Fuj": 6643, "puja": 6644, "Fuji": 6645, "nujach": 6646, "uji": 6647, "Gujar": 6648, "ujil": 6649, "ujill": 6650, "luj": 6651, "rujill": 6652, "Trujill": 6653, "Cluj": 6654, "Trujillo": 6655, "Gujara": 6656, "Gujarat": 6657, "anujach": 6658, "manujach": 6659, "amanujach": 6660, "Ramanujach": 6661, "Ramanujacha": 6662, "ji": 6663, "Ejle": 6664, "jam": 6665, "njing": 6666, "projections": 6667, "jiang": 6668, "Aj": 6669, "ijing": 6670, "Ejler": 6671, "Ramanujachar": 6672, "jih": 6673, "anjing": 6674, "jm": 6675, "jave": 6676, "eijing": 6677, "njiang": 6678, "Yanjing": 6679, "Beijing": 6680, "Ramanujachary": 6681, "javel": 6682, "injiang": 6683, "ojiang": 6684, "Xinjiang": 6685, "uojiang": 6686, "ianjing": 6687, "Tuojiang": 6688, "Bianjing": 6689, "javeli": 6690, "javelin": 6691, "Tuojiango": 6692, "jiha": 6693, "jihad": 6694, "Tuojiangos": 6695, "Ramanujacharya": 6696, "Nja": 6697, "Tuojiangosa": 6698, "jaw": 6699, "Tuojiangosau": 6700, "jac": 6701, "aj": 6702, "njam": 6703, "Rajam": 6704, "Kaja": 6705, "Maje": 6706, "Raje": 6707, "Raj": 6708, "Kaj": 6709, "Taj": 6710, "Baja": 6711, "Saji": 6712, "kaji": 6713, "Caja": 6714, "kajim": 6715, "Kajal": 6716, "Cajal": 6717, "Sajid": 6718, "djac": 6719, "raja": 6720, "Traja": 6721, "jacu": 6722, "Tuojiangosaur": 6723, "Tuojiangosauru": 6724, "jacul": 6725, "Trajan": 6726, "raj": 6727, "njami": 6728, "jag": 6729, "Rajamo": 6730, "adjac": 6731, "Rajamou": 6732, "njamm": 6733, "jagu": 6734, "jagg": 6735, "Rajamoul": 6736, "Tuojiangosaurus": 6737, "njamin": 6738, "akajim": 6739, "Nakajim": 6740, "Rajamouli": 6741, "Nakajima": 6742, "jagua": 6743, "jaguar": 6744, "jacula": 6745, "jaculat": 6746, "araj": 6747, "Majes": 6748, "Rajee": 6749, "Rajeev": 6750, "haraj": 6751, "Majel": 6752, "Majest": 6753, "Majesty": 6754, "taraja": 6755, "iraja": 6756, "hiraja": 6757, "jaculati": 6758, "ataraja": 6759, "Nataraja": 6760, "shiraja": 6761, "jaculatio": 6762, "aharaj": 6763, "adjace": 6764, "Maharaj": 6765, "adjacen": 6766, "adjacent": 6767, "jaculation": 6768, "enjamin": 6769, "Benjamin": 6770, "jagge": 6771, "jagged": 6772, "eshiraja": 6773, "Keshiraja": 6774, "ejaculation": 6775, "enjamm": 6776, "zenjamm": 6777, "tzenjamm": 6778, "atzenjamm": 6779, "Katzenjamm": 6780, "Katzenjamme": 6781, "Rajas": 6782, "jab": 6783, "rj": 6784, "Rajasth": 6785, "urj": 6786, "Katzenjammer": 6787, "rjea": 6788, "njab": 6789, "ej": 6790, "zej": 6791, "Leje": 6792, "Burj": 6793, "Teja": 6794, "Sejm": 6795, "bejewelled": 6796, "unjab": 6797, "Punjab": 6798, "Lejeu": 6799, "leja": 6800, "ijm": 6801, "jabs": 6802, "Nijm": 6803, "Aleja": 6804, "Alejan": 6805, "Alejand": 6806, "Lejeun": 6807, "rejoining": 6808, "rejoin": 6809, "rzej": 6810, "drzej": 6811, "Alejandr": 6812, "Rajastha": 6813, "erjea": 6814, "ndrzej": 6815, "Andrzej": 6816, "nerjea": 6817, "Rajasthan": 6818, "Alejandro": 6819, "anerjea": 6820, "Nijme": 6821, "Banerjea": 6822, "Nijmeg": 6823, "Lejeune": 6824, "Punjabi": 6825, "Fujia": 6826, "nje": 6827, "Fujian": 6828, "inje": 6829, "Nijmege": 6830, "jet": 6831, "Linje": 6832, "Linjef": 6833, "binje": 6834, "Nijmegen": 6835, "Linjefl": 6836, "sinje": 6837, "anje": 6838, "vesinje": 6839, "Sanje": 6840, "Linjefly": 6841, "Linjeflyg": 6842, "ranje": 6843, "Sanjee": 6844, "Sanjeev": 6845, "iranje": 6846, "Chiranje": 6847, "Chiranjee": 6848, "Chiranjeevi": 6849, "evesinje": 6850, "Nevesinje": 6851, "ebinje": 6852, "jetp": 6853, "rebinje": 6854, "jetpo": 6855, "evolt": 6856, "Trebinje": 6857, "revolt": 6858, "jetpor": 6859, "volta": 6860, "eizing": 6861, "val": 6862, "voltag": 6863, "Evalu": 6864, "jetport": 6865, "seizing": 6866, "Evald": 6867, "volts": 6868, "dizing": 6869, "Evalua": 6870, "voltage": 6871, "Evaluat": 6872, "idizing": 6873, "sizing": 6874, "Viva": 6875, "valu": 6876, "Angele": 6877, "xidizing": 6878, "Evaluati": 6879, "Angeles": 6880, "asizing": 6881, "Angelo": 6882, "value": 6883, "hasizing": 6884, "Angelou": 6885, "Evaluatio": 6886, "phasizing": 6887, "Evaluation": 6888, "oxidizing": 6889, "valua": 6890, "ival": 6891, "adjectives": 6892, "sacke": 6893, "quival": 6894, "valuab": 6895, "mphasizing": 6896, "sacked": 6897, "ssack": 6898, "valuabl": 6899, "valuat": 6900, "sacks": 6901, "ossack": 6902, "equival": 6903, "Cossacks": 6904, "Cossack": 6905, "valuating": 6906, "valuable": 6907, "equivale": 6908, "equivalen": 6909, "evaluat": 6910, "equivalent": 6911, "emphasizing": 6912, "Oval": 6913, "rival": 6914, "equivalenc": 6915, "tival": 6916, "evaluate": 6917, "rrival": 6918, "chival": 6919, "evaluati": 6920, "stival": 6921, "evaluated": 6922, "arrival": 6923, "equivalence": 6924, "rchival": 6925, "evaluatio": 6926, "bival": 6927, "estival": 6928, "Festival": 6929, "mbival": 6930, "festival": 6931, "evaluation": 6932, "ambival": 6933, "archival": 6934, "nival": 6935, "ambivale": 6936, "dival": 6937, "ambivalen": 6938, "rnival": 6939, "cival": 6940, "ambivalent": 6941, "arnival": 6942, "divale": 6943, "Carnival": 6944, "carnival": 6945, "divalen": 6946, "rcival": 6947, "enjoye": 6948, "enjoyed": 6949, "divalent": 6950, "ercival": 6951, "enjoying": 6952, "Percival": 6953, "bucke": 6954, "bucket": 6955, "bucks": 6956, "rbucks": 6957, "ex": 6958, "YP": 6959, "BYP": 6960, "YPM": 6961, "Tex": 6962, "Mex": 6963, "nvex": 6964, "rthex": 6965, "x16": 6966, "arbucks": 6967, "tarbucks": 6968, "Mexi": 6969, "onvex": 6970, "arthex": 6971, "Starbucks": 6972, "Mexic": 6973, "convex": 6974, "narthex": 6975, "Texa": 6976, "Mexico": 6977, "ix": 6978, "Nex": 6979, "expe": 6980, "Nix": 6981, "Six": 6982, "Text": 6983, "Texas": 6984, "Sixth": 6985, "Next": 6986, "Nixo": 6987, "Mexica": 6988, "mix": 6989, "ixth": 6990, "Mexican": 6991, "sixth": 6992, "Nixon": 6993, "Mix": 6994, "Nexo": 6995, "mixing": 6996, "Mixing": 6997, "Nexon": 6998, "six": 6999, "expec": 7000, "Fix": 7001, "Dix": 7002, "expect": 7003, "expecting": 7004, "fix": 7005, "exper": 7006, "tFix": 7007, "Dixi": 7008, "Texts": 7009, "itFix": 7010, "Dixo": 7011, "HitFix": 7012, "Dixon": 7013, "experi": 7014, "Fixe": 7015, "Fixed": 7016, "expert": 7017, "Dixie": 7018, "exped": 7019, "experim": 7020, "Hix": 7021, "expedi": 7022, "expen": 7023, "experie": 7024, "expel": 7025, "expedit": 7026, "experien": 7027, "expens": 7028, "experime": 7029, "experienc": 7030, "expend": 7031, "expell": 7032, "experimen": 7033, "expediti": 7034, "experiment": 7035, "expeditio": 7036, "expensi": 7037, "expelle": 7038, "expensive": 7039, "expelled": 7040, "expedition": 7041, "experimenting": 7042, "expense": 7043, "expedite": 7044, "expedited": 7045, "experience": 7046, "experiencing": 7047, "expecte": 7048, "experienced": 7049, "ox": 7050, "Fox": 7051, "Rox": 7052, "oxx": 7053, "expected": 7054, "yoxx": 7055, "Box": 7056, "Boxing": 7057, "box": 7058, "boxing": 7059, "Sox": 7060, "ayoxx": 7061, "rayoxx": 7062, "Cox": 7063, "Roxa": 7064, "Krayoxx": 7065, "Roxb": 7066, "Roxy": 7067, "Roxbu": 7068, "Roxas": 7069, "oxi": 7070, "oxim": 7071, "fox": 7072, "Roxbur": 7073, "Roxbury": 7074, "oxy": 7075, "oxyg": 7076, "Tox": 7077, "roxim": 7078, "oxid": 7079, "proxim": 7080, "oxic": 7081, "oxym": 7082, "Toxt": 7083, "pproxim": 7084, "noxy": 7085, "Approxim": 7086, "proximi": 7087, "noxyn": 7088, "toxic": 7089, "oxymo": 7090, "doxic": 7091, "proximit": 7092, "oxymor": 7093, "onoxyn": 7094, "proximity": 7095, "nonoxyn": 7096, "oxymoro": 7097, "oxymoron": 7098, "nonoxyno": 7099, "toxi": 7100, "poxi": 7101, "nonoxynol": 7102, "toxif": 7103, "approxim": 7104, "ypoxi": 7105, "toxifi": 7106, "toxin": 7107, "approxima": 7108, "hypoxi": 7109, "approximat": 7110, "toxins": 7111, "Approxima": 7112, "Approximat": 7113, "aoxing": 7114, "Shaoxing": 7115, "hypoxia": 7116, "adoxic": 7117, "radoxic": 7118, "aradoxic": 7119, "paradoxic": 7120, "paradoxica": 7121, "dox": 7122, "approximate": 7123, "paradoxical": 7124, "approximatel": 7125, "odox": 7126, "Approximate": 7127, "thodox": 7128, "approximately": 7129, "Approximatel": 7130, "adox": 7131, "epoxid": 7132, "Approximately": 7133, "rthodox": 7134, "Orthodox": 7135, "radox": 7136, "epoxide": 7137, "epoxides": 7138, "orthodox": 7139, "aradox": 7140, "oxyge": 7141, "paradox": 7142, "oxygen": 7143, "etoxifi": 7144, "detoxifi": 7145, "detoxifie": 7146, "detoxified": 7147, "Toxte": 7148, "northodox": 7149, "Toxteth": 7150, "unorthodox": 7151, "oxide": 7152, "cox": 7153, "ax": 7154, "Max": 7155, "Tax": 7156, "lcox": 7157, "Sax": 7158, "Ax": 7159, "ilcox": 7160, "Wilcox": 7161, "ux": 7162, "Saxo": 7163, "max": 7164, "Oax": 7165, "Saxon": 7166, "maxi": 7167, "oxida": 7168, "Nx": 7169, "Nxf": 7170, "maxim": 7171, "oxidat": 7172, "imax": 7173, "Oaxa": 7174, "Lax": 7175, "Taxo": 7176, "Nxf2": 7177, "maximu": 7178, "Oaxac": 7179, "limax": 7180, "climax": 7181, "maximum": 7182, "maxil": 7183, "oxidati": 7184, "Taxon": 7185, "Oaxaca": 7186, "maxill": 7187, "maximus": 7188, "Taxono": 7189, "Taxonom": 7190, "oxidatio": 7191, "Laxa": 7192, "Taxonomy": 7193, "oxidation": 7194, "maxilla": 7195, "Jax": 7196, "Dax": 7197, "Dx": 7198, "emaxilla": 7199, "Axi": 7200, "lux": 7201, "Wax": 7202, "EDx": 7203, "flux": 7204, "Axis": 7205, "remaxilla": 7206, "TEDx": 7207, "premaxilla": 7208, "luxu": 7209, "aemaxilla": 7210, "Axe": 7211, "Axel": 7212, "luxur": 7213, "luxury": 7214, "raemaxilla": 7215, "elux": 7216, "Delux": 7217, "praemaxilla": 7218, "delux": 7219, "luxuri": 7220, "luxurio": 7221, "deluxe": 7222, "luxuriou": 7223, "Deluxe": 7224, "luxurious": 7225, "praemaxillae": 7226, "premaxillar": 7227, "nflux": 7228, "Taxi": 7229, "tax": 7230, "oux": 7231, "expecta": 7232, "Doux": 7233, "premaxillary": 7234, "influx": 7235, "expectat": 7236, "expectati": 7237, "premaxillari": 7238, "expectan": 7239, "expectatio": 7240, "expectanc": 7241, "expectation": 7242, "ioux": 7243, "lax": 7244, "premaxillarie": 7245, "Sioux": 7246, "expectancy": 7247, "moux": 7248, "laxy": 7249, "imoux": 7250, "premaxillaries": 7251, "roux": 7252, "Limoux": 7253, "Theroux": 7254, "expectations": 7255, "alaxy": 7256, "Cax": 7257, "laxing": 7258, "Galaxy": 7259, "galaxy": 7260, "Caxt": 7261, "elaxing": 7262, "flax": 7263, "relaxing": 7264, "Caxto": 7265, "fax": 7266, "experts": 7267, "xe": 7268, "Maxw": 7269, "nix": 7270, "Enix": 7271, "xe6": 7272, "pixe": 7273, "fxe6": 7274, "pixel": 7275, "fixed": 7276, "laxed": 7277, "Mixed": 7278, "exec": 7279, "execu": 7280, "mixed": 7281, "Exec": 7282, "foxes": 7283, "Execu": 7284, "execut": 7285, "taxes": 7286, "Execut": 7287, "Foxes": 7288, "Caxton": 7289, "Executi": 7290, "oxen": 7291, "Executive": 7292, "flaxen": 7293, "xen": 7294, "mixes": 7295, "Exet": 7296, "llax": 7297, "executi": 7298, "elaxed": 7299, "executive": 7300, "xes": 7301, "lexes": 7302, "xess": 7303, "plexes": 7304, "sexes": 7305, "nxess": 7306, "relaxed": 7307, "mplexes": 7308, "mixer": 7309, "Exer": 7310, "Exerc": 7311, "boxer": 7312, "executio": 7313, "Exerci": 7314, "execution": 7315, "omplexes": 7316, "complexes": 7317, "Exercis": 7318, "xeno": 7319, "anxess": 7320, "Lanxess": 7321, "xenon": 7322, "rxen": 7323, "allax": 7324, "rallax": 7325, "rxena": 7326, "exem": 7327, "execute": 7328, "exemp": 7329, "executed": 7330, "rxenat": 7331, "exer": 7332, "arallax": 7333, "Exete": 7334, "parallax": 7335, "exerc": 7336, "exed": 7337, "exert": 7338, "exerci": 7339, "nexed": 7340, "Exeter": 7341, "exempl": 7342, "Exercise": 7343, "exempt": 7344, "exercis": 7345, "nnexed": 7346, "exempli": 7347, "Maxwe": 7348, "exemplif": 7349, "Maxwel": 7350, "exercising": 7351, "annexed": 7352, "Maxwell": 7353, "exemplifi": 7354, "exempla": 7355, "exercise": 7356, "exemplar": 7357, "exemplifie": 7358, "exemplary": 7359, "exemplified": 7360, "erxenat": 7361, "perxenat": 7362, "exemplifies": 7363, "perxenate": 7364, "fixt": 7365, "Sx": 7366, "fixtu": 7367, "fixing": 7368, "Sxs": 7369, "nx": 7370, "rix": 7371, "laxi": 7372, "exercised": 7373, "emixes": 7374, "Prix": 7375, "Brix": 7376, "yx": 7377, "Sxst": 7378, "remixes": 7379, "pyx": 7380, "Brixt": 7381, "pyxi": 7382, "fixtur": 7383, "lix": 7384, "trix": 7385, "drix": 7386, "flix": 7387, "pyxis": 7388, "pix": 7389, "wix": 7390, "tflix": 7391, "ndrix": 7392, "opyxis": 7393, "nwix": 7394, "oix": 7395, "roix": 7396, "Brixto": 7397, "xg": 7398, "lpix": 7399, "laxa": 7400, "xg4": 7401, "Croix": 7402, "hxg4": 7403, "laxat": 7404, "pixi": 7405, "Brixton": 7406, "olpix": 7407, "anwix": 7408, "Colpix": 7409, "tanwix": 7410, "laxati": 7411, "atrix": 7412, "Stanwix": 7413, "Matrix": 7414, "matrix": 7415, "laxatio": 7416, "alaxi": 7417, "fixture": 7418, "galaxi": 7419, "laxation": 7420, "eopyxis": 7421, "Geopyxis": 7422, "pixie": 7423, "etflix": 7424, "Netflix": 7425, "elix": 7426, "Felix": 7427, "helix": 7428, "elaxation": 7429, "Relaxation": 7430, "elixi": 7431, "endrix": 7432, "Hendrix": 7433, "relaxation": 7434, "elixir": 7435, "Sxste": 7436, "galaxie": 7437, "fixtures": 7438, "exempti": 7439, "rfax": 7440, "ifax": 7441, "lifax": 7442, "irfax": 7443, "galaxies": 7444, "exemptio": 7445, "enix": 7446, "exemption": 7447, "oenix": 7448, "hoenix": 7449, "onix": 7450, "alifax": 7451, "Phoenix": 7452, "Halifax": 7453, "monix": 7454, "airfax": 7455, "nxi": 7456, "cx": 7457, "Ext": 7458, "Fairfax": 7459, "cxd": 7460, "rmonix": 7461, "anxi": 7462, "Exh": 7463, "ynx": 7464, "cxd4": 7465, "Lynx": 7466, "Shanxi": 7467, "Exha": 7468, "Exhal": 7469, "armonix": 7470, "onx": 7471, "Harmonix": 7472, "inx": 7473, "ronx": 7474, "Exhale": 7475, "Jinx": 7476, "Bronx": 7477, "hinx": 7478, "axi": 7479, "rox": 7480, "phinx": 7481, "Maxim": 7482, "taxiing": 7483, "droxide": 7484, "ydroxide": 7485, "troxide": 7486, "sphinx": 7487, "hydroxide": 7488, "Maxis": 7489, "Maximu": 7490, "pox": 7491, "Maximum": 7492, "lpox": 7493, "nox": 7494, "Maximi": 7495, "axis": 7496, "etroxide": 7497, "trox": 7498, "Knox": 7499, "mox": 7500, "Maximil": 7501, "llpox": 7502, "tetroxide": 7503, "Maximili": 7504, "imox": 7505, "nnox": 7506, "onoxide": 7507, "axia": 7508, "monoxide": 7509, "axial": 7510, "timox": 7511, "atrox": 7512, "rtimox": 7513, "allpox": 7514, "erox": 7515, "ferox": 7516, "urtimox": 7517, "mallpox": 7518, "ennox": 7519, "Maximilia": 7520, "oaxial": 7521, "Exti": 7522, "exercises": 7523, "exc": 7524, "Lennox": 7525, "furtimox": 7526, "coaxial": 7527, "smallpox": 7528, "Maximilian": 7529, "ifurtimox": 7530, "Extin": 7531, "Maximilie": 7532, "Extr": 7533, "ext": 7534, "Extinc": 7535, "Maximilien": 7536, "Extinct": 7537, "nifurtimox": 7538, "Exte": 7539, "exh": 7540, "Extra": 7541, "Extincti": 7542, "Exten": 7543, "Extre": 7544, "Extrem": 7545, "Extens": 7546, "Exter": 7547, "Extinctio": 7548, "exhi": 7549, "picke": 7550, "exhib": 7551, "picked": 7552, "Extensi": 7553, "Extern": 7554, "Extensive": 7555, "picket": 7556, "exhibi": 7557, "Extinction": 7558, "Externa": 7559, "External": 7560, "exhibit": 7561, "exha": 7562, "Extreme": 7563, "exhu": 7564, "exhum": 7565, "exhau": 7566, "ebanjo": 7567, "yebanjo": 7568, "exhal": 7569, "exhaus": 7570, "exhume": 7571, "Oyebanjo": 7572, "exhumed": 7573, "exhaust": 7574, "exhale": 7575, "exhaled": 7576, "exhausting": 7577, "stacke": 7578, "Exi": 7579, "stacked": 7580, "Exit": 7581, "Exa": 7582, "exhauste": 7583, "exhibiti": 7584, "Exam": 7585, "exhausted": 7586, "exhibitio": 7587, "Examp": 7588, "exhibition": 7589, "Exo": 7590, "exhausti": 7591, "Exampl": 7592, "Exod": 7593, "Exami": 7594, "exhaustio": 7595, "ealize": 7596, "jamm": 7597, "Exodu": 7598, "exhaustion": 7599, "Exodus": 7600, "Examin": 7601, "realized": 7602, "Examining": 7603, "realize": 7604, "Example": 7605, "Examples": 7606, "Examina": 7607, "jamme": 7608, "ualize": 7609, "ialized": 7610, "cialized": 7611, "jammed": 7612, "Examinat": 7613, "sualized": 7614, "visualized": 7615, "Examinati": 7616, "sualize": 7617, "rialized": 7618, "ecialized": 7619, "calized": 7620, "visualize": 7621, "pecialized": 7622, "ocalized": 7623, "localized": 7624, "specialized": 7625, "Examinatio": 7626, "erialized": 7627, "nalized": 7628, "engi": 7629, "ralize": 7630, "uralized": 7631, "tralize": 7632, "engin": 7633, "utralize": 7634, "turalized": 7635, "ntralized": 7636, "Examination": 7637, "serialized": 7638, "talized": 7639, "aturalized": 7640, "engine": 7641, "malized": 7642, "terialized": 7643, "italized": 7644, "naturalized": 7645, "entralized": 7646, "pitalized": 7647, "centralized": 7648, "rmalized": 7649, "aterialized": 7650, "eutralize": 7651, "Beng": 7652, "onalized": 7653, "talize": 7654, "materialized": 7655, "ionalized": 7656, "tionalized": 7657, "ialize": 7658, "ctionalized": 7659, "italize": 7660, "neutralize": 7661, "rialize": 7662, "ormalized": 7663, "Benga": 7664, "spitalized": 7665, "Deng": 7666, "pitalize": 7667, "formalized": 7668, "Bengal": 7669, "ictionalized": 7670, "ospitalized": 7671, "apitalized": 7672, "Denge": 7673, "Dengek": 7674, "hospitalized": 7675, "fictionalized": 7676, "capitalized": 7677, "apitalize": 7678, "erialize": 7679, "inalized": 7680, "finalized": 7681, "capitalize": 7682, "terialize": 7683, "Dengeki": 7684, "enalized": 7685, "Meng": 7686, "penalized": 7687, "aterialize": 7688, "Mengd": 7689, "leng": 7690, "enginee": 7691, "materialize": 7692, "lleng": 7693, "engineer": 7694, "engineering": 7695, "alleng": 7696, "challeng": 7697, "Challeng": 7698, "challenge": 7699, "Challenge": 7700, "Mengde": 7701, "engineers": 7702, "enga": 7703, "engag": 7704, "Mengden": 7705, "Leng": 7706, "engaging": 7707, "renga": 7708, "rengar": 7709, "engage": 7710, "rengari": 7711, "engaged": 7712, "engagem": 7713, "rengaria": 7714, "engageme": 7715, "engagemen": 7716, "erengaria": 7717, "Berengaria": 7718, "engagement": 7719, "Lenge": 7720, "seng": 7721, "Lenged": 7722, "feng": 7723, "isengage": 7724, "sseng": 7725, "disengage": 7726, "heng": 7727, "ifeng": 7728, "ssenge": 7729, "ssenger": 7730, "aifeng": 7731, "Lengede": 7732, "Kaifeng": 7733, "assenger": 7734, "passenger": 7735, "Passenger": 7736, "passengers": 7737, "essenger": 7738, "engr": 7739, "messenger": 7740, "hengri": 7741, "hengrin": 7742, "ohengrin": 7743, "engu": 7744, "engra": 7745, "sheng": 7746, "engraving": 7747, "Lohengrin": 7748, "engrave": 7749, "usheng": 7750, "rengu": 7751, "rusheng": 7752, "erengu": 7753, "merengu": 7754, "merengue": 7755, "eheng": 7756, "neheng": 7757, "oneheng": 7758, "toneheng": 7759, "Stoneheng": 7760, "Stonehenge": 7761, "engraved": 7762, "engraver": 7763, "enge": 7764, "engines": 7765, "ieng": 7766, "engen": 7767, "wicke": 7768, "ly": 7769, "Rieng": 7770, "lightly": 7771, "overwhelmingly": 7772, "horizontally": 7773, "strongly": 7774, "highly": 7775, "expertly": 7776, "wrongly": 7777, "Evely": 7778, "engend": 7779, "expectedly": 7780, "ightly": 7781, "explosively": 7782, "tightly": 7783, "nexpectedly": 7784, "unexpectedly": 7785, "Evelyn": 7786, "slightly": 7787, "wicket": 7788, "vocally": 7789, "engende": 7790, "engender": 7791, "wicked": 7792, "dwicke": 7793, "wickets": 7794, "Oly": 7795, "ivocally": 7796, "voy": 7797, "quivocally": 7798, "Olym": 7799, "rdwicke": 7800, "nvoy": 7801, "lengthy": 7802, "Olymp": 7803, "onvoy": 7804, "ardwicke": 7805, "equivocally": 7806, "Hardwicke": 7807, "convoy": 7808, "Olympi": 7809, "nequivocally": 7810, "Convoy": 7811, "unequivocally": 7812, "Olympu": 7813, "Olympic": 7814, "nvoys": 7815, "Olympus": 7816, "Olympia": 7817, "envoy": 7818, "Olympian": 7819, "voya": 7820, "Nicky": 7821, "lly": 7822, "voyag": 7823, "avoy": 7824, "Savoy": 7825, "voyage": 7826, "ally": 7827, "squarely": 7828, "experimentally": 7829, "wholly": 7830, "ully": 7831, "Gully": 7832, "fully": 7833, "llyw": 7834, "Fully": 7835, "Sully": 7836, "cully": 7837, "Scully": 7838, "gully": 7839, "ullying": 7840, "bullying": 7841, "ollyw": 7842, "Hollyw": 7843, "Bollyw": 7844, "Bollywo": 7845, "Bollywoo": 7846, "Bollywood": 7847, "Hollywo": 7848, "ually": 7849, "exually": 7850, "Hollywoo": 7851, "equally": 7852, "Hollywood": 7853, "sexually": 7854, "tually": 7855, "cally": 7856, "vely": 7857, "ively": 7858, "ically": 7859, "ovely": 7860, "tively": 7861, "ctually": 7862, "lovely": 7863, "ctively": 7864, "sively": 7865, "Lively": 7866, "lively": 7867, "usively": 7868, "ocally": 7869, "ntually": 7870, "pically": 7871, "actually": 7872, "ventually": 7873, "ypically": 7874, "lusively": 7875, "exclusively": 7876, "Typically": 7877, "locally": 7878, "clusively": 7879, "typically": 7880, "opically": 7881, "rtually": 7882, "eventually": 7883, "atively": 7884, "virtually": 7885, "copically": 7886, "utually": 7887, "latively": 7888, "nclusively": 7889, "itively": 7890, "mutually": 7891, "gatively": 7892, "ptively": 7893, "utively": 7894, "itually": 7895, "scopically": 7896, "bitually": 7897, "cutively": 7898, "sitively": 7899, "oscopically": 7900, "titively": 7901, "roscopically": 7902, "croscopically": 7903, "ritually": 7904, "ositively": 7905, "positively": 7906, "icroscopically": 7907, "microscopically": 7908, "iritually": 7909, "onclusively": 7910, "abitually": 7911, "egatively": 7912, "habitually": 7913, "piritually": 7914, "conclusively": 7915, "negatively": 7916, "elatively": 7917, "spiritually": 7918, "relatively": 7919, "ecutively": 7920, "secutively": 7921, "etitively": 7922, "petitively": 7923, "nsecutively": 7924, "eptively": 7925, "mpetitively": 7926, "ceptively": 7927, "onsecutively": 7928, "ectively": 7929, "sually": 7930, "fically": 7931, "nsively": 7932, "thickly": 7933, "Usually": 7934, "usually": 7935, "consecutively": 7936, "pectively": 7937, "Unusually": 7938, "visually": 7939, "fectively": 7940, "ifically": 7941, "spectively": 7942, "dually": 7943, "ompetitively": 7944, "vidually": 7945, "ffectively": 7946, "competitively": 7947, "cifically": 7948, "lectively": 7949, "ividually": 7950, "nually": 7951, "ssively": 7952, "adually": 7953, "espectively": 7954, "llectively": 7955, "dividually": 7956, "tifically": 7957, "radually": 7958, "gradually": 7959, "Gradually": 7960, "ndividually": 7961, "individually": 7962, "ntifically": 7963, "respectively": 7964, "ollectively": 7965, "collectively": 7966, "nnually": 7967, "isively": 7968, "ensively": 7969, "extensively": 7970, "cisively": 7971, "lsively": 7972, "annually": 7973, "inually": 7974, "ecifically": 7975, "pecifically": 7976, "ulsively": 7977, "tensively": 7978, "pulsively": 7979, "Specifically": 7980, "tinually": 7981, "ntensively": 7982, "mpulsively": 7983, "intensively": 7984, "specifically": 7985, "ntinually": 7986, "anually": 7987, "effectively": 7988, "manually": 7989, "impulsively": 7990, "ontinually": 7991, "entifically": 7992, "continually": 7993, "ientifically": 7994, "electively": 7995, "cientifically": 7996, "selectively": 7997, "ecisively": 7998, "decisively": 7999, "scientifically": 8000, "eceptively": 8001, "actively": 8002, "deceptively": 8003, "nctively": 8004, "essively": 8005, "swick": 8006, "ratively": 8007}